[PAD]
[unused1]
[unused2]
[unused3]
[unused4]
[unused5]
[unused6]
[unused7]
[unused8]
[unused9]
[unused10]
[unused11]
[unused12]
[unused13]
[unused14]
[unused15]
[unused16]
[unused17]
[unused18]
[unused19]
[unused20]
[unused21]
[unused22]
[unused23]
[unused24]
[unused25]
[unused26]
[unused27]
[unused28]
[unused29]
[unused30]
[unused31]
[unused32]
[unused33]
[unused34]
[unused35]
[unused36]
[unused37]
[unused38]
[unused39]
[unused40]
[unused41]
[unused42]
[unused43]
[unused44]
[unused45]
[unused46]
[unused47]
[unused48]
[unused49]
[unused50]
[unused51]
[unused52]
[unused53]
[unused54]
[unused55]
[unused56]
[unused57]
[unused58]
[unused59]
[unused60]
[unused61]
[unused62]
[unused63]
[unused64]
[unused65]
[unused66]
[unused67]
[unused68]
[unused69]
[unused70]
[unused71]
[unused72]
[unused73]
[unused74]
[unused75]
[unused76]
[unused77]
[unused78]
[unused79]
[unused80]
[unused81]
[unused82]
[unused83]
[unused84]
[unused85]
[unused86]
[unused87]
[unused88]
[unused89]
[unused90]
[unused91]
[unused92]
[unused93]
[unused94]
[unused95]
[unused96]
[unused97]
[unused98]
[unused99]
[UNK]
[CLS]
[SEP]
[MASK]
<S>
<T>
!
"
$
%
&
'
(
)
*
+
,
-
.
/
0
1
2
3
4
5
6
7
8
9
:
;
<
=
>
?
@
[
\
]
^
_
a
b
c
d
e
f
g
h
i
j
k
l
m
n
o
p
q
r
s
t
u
v
w
x
y
z
{
|
}
~
£
¤
¥
§
©
«
®
°
±
²
³
µ
·
¹
º
»
¼
×
ß
æ
÷
ø
đ
ŋ
ɔ
ə
ɡ
ʰ
ˇ
ˈ
ˊ
ˋ
ˍ
ː
˙
˚
ˢ
α
β
γ
δ
ε
η
θ
ι
κ
λ
μ
ν
ο
π
ρ
ς
σ
τ
υ
φ
χ
ψ
ω
а
б
в
г
д
е
ж
з
и
к
л
м
н
о
п
р
с
т
у
ф
х
ц
ч
ш
ы
ь
я
і
ا
ب
ة
ت
د
ر
س
ع
ل
م
ن
ه
و
ي
۩
ก
ง
น
ม
ย
ร
อ
า
เ
๑
་
ღ
ᄀ
ᄁ
ᄂ
ᄃ
ᄅ
ᄆ
ᄇ
ᄈ
ᄉ
ᄋ
ᄌ
ᄎ
ᄏ
ᄐ
ᄑ
ᄒ
ᅡ
ᅢ
ᅣ
ᅥ
ᅦ
ᅧ
ᅨ
ᅩ
ᅪ
ᅬ
ᅭ
ᅮ
ᅯ
ᅲ
ᅳ
ᅴ
ᅵ
ᆨ
ᆫ
ᆯ
ᆷ
ᆸ
ᆺ
ᆻ
ᆼ
ᗜ
ᵃ
ᵉ
ᵍ
ᵏ
ᵐ
ᵒ
ᵘ
‖
„
†
•
‥
‧

‰
′
″
‹
›
※
‿
⁄
ⁱ
⁺
ⁿ
₁
₂
₃
₄
€
℃
№
™
ⅰ
ⅱ
ⅲ
ⅳ
ⅴ
←
↑
→
↓
↔
↗
↘
⇒
∀
−
∕
∙
√
∞
∟
∠
∣
∥
∩
∮
∶
∼
∽
≈
≒
≡
≤
≥
≦
≧
≪
≫
⊙
⋅
⋈
⋯
⌒
①
②
③
④
⑤
⑥
⑦
⑧
⑨
⑩
⑴
⑵
⑶
⑷
⑸
⒈
⒉
⒊
⒋
ⓒ
ⓔ
ⓘ
─
━
│
┃
┅
┆
┊
┌
└
├
┣
═
║
╚
╞
╠
╭
╮
╯
╰
╱
╳
▂
▃
▅
▇
█
▉
▋
▌
▍
▎
■
□
▪
▫
▬
▲
△
▶
►
▼
▽
◆
◇
○
◎
●
◕
◠
◢
◤
☀
★
☆
☕
☞
☺
☼
♀
♂
♠
♡
♣
♥
♦
♪
♫
♬
✈
✔
✕
✖
✦
✨
✪
✰
✿
❀
❤
➜
➤
⦿
、
。
〃
々
〇
〈
〉
《
》
「
」
『
』
【
】
〓
〔
〕
〖
〗
〜
〝
〞
ぁ
あ
ぃ
い
う
ぇ
え
お
か
き
く
け
こ
さ
し
す
せ
そ
た
ち
っ
つ
て
と
な
に
ぬ
ね
の
は
ひ
ふ
へ
ほ
ま
み
む
め
も
ゃ
や
ゅ
ゆ
ょ
よ
ら
り
る
れ
ろ
わ
を
ん
゜
ゝ
ァ
ア
ィ
イ
ゥ
ウ
ェ
エ
ォ
オ
カ
キ
ク
ケ
コ
サ
シ
ス
セ
ソ
タ
チ
ッ
ツ
テ
ト
ナ
ニ
ヌ
ネ
ノ
ハ
ヒ
フ
ヘ
ホ
マ
ミ
ム
メ
モ
ャ
ヤ
ュ
ユ
ョ
ヨ
ラ
リ
ル
レ
ロ
ワ
ヲ
ン
ヶ
・
ー
ヽ
ㄅ
ㄆ
ㄇ
ㄉ
ㄋ
ㄌ
ㄍ
ㄎ
ㄏ
ㄒ
ㄚ
ㄛ
ㄞ
ㄟ
ㄢ
ㄤ
ㄥ
ㄧ
ㄨ
ㆍ
㈦
㊣
㎡
㗎
一
丁
七
万
丈
三
上
下
不
与
丐
丑
专
且
丕
世
丘
丙
业
丛
东
丝
丞
丟
両
丢
两
严
並
丧
丨
个
丫
中
丰
串
临
丶
丸
丹
为
主
丼
丽
举
丿
乂
乃
久
么
义
之
乌
乍
乎
乏
乐
乒
乓
乔
乖
乗
乘
乙
乜
九
乞
也
习
乡
书
乩
买
乱
乳
乾
亀
亂
了
予
争
事
二
于
亏
云
互
五
井
亘
亙
亚
些
亜
亞
亟
亡
亢
交
亥
亦
产
亨
亩
享
京
亭
亮
亲
亳
亵
人
亿
什
仁
仃
仄
仅
仆
仇
今
介
仍
从
仏
仑
仓
仔
仕
他
仗
付
仙
仝
仞
仟
代
令
以
仨
仪
们
仮
仰
仲
件
价
任
份
仿
企
伉
伊
伍
伎
伏
伐
休
伕
众
优
伙
会
伝
伞
伟
传
伢
伤
伦
伪
伫
伯
估
伴
伶
伸
伺
似
伽
佃
但
佇
佈
位
低
住
佐
佑
体
佔
何
佗
佘
余
佚
佛
作
佝
佞
佟
你
佢
佣
佤
佥
佩
佬
佯
佰
佳
併
佶
佻
佼
使
侃
侄
來
侈
例
侍
侏
侑
侖
侗
供
依
侠
価
侣
侥
侦
侧
侨
侬
侮
侯
侵
侶
侷
便
係
促
俄
俊
俎
俏
俐
俑
俗
俘
俚
保
俞
俟
俠
信
俨
俩
俪
俬
俭
修
俯
俱
俳
俸
俺
俾
倆
倉
個
倌
倍
倏
們
倒
倔
倖
倘
候
倚
倜
借
倡
値
倦
倩
倪
倫
倬
倭
倶
债
值
倾
偃
假
偈
偉
偌
偎
偏
偕
做
停
健
側
偵
偶
偷
偻
偽
偿
傀
傅
傍
傑
傘
備
傚
傢
傣
傥
储
傩
催
傭
傲
傳
債
傷
傻
傾
僅
働
像
僑
僕
僖
僚
僥
僧
僭
僮
僱
僵
價
僻
儀
儂
億
儆
儉
儋
儒
儕
儘
償
儡
優
儲
儷
儼
儿
兀
允
元
兄
充
兆
兇
先
光
克
兌
免
児
兑
兒
兔
兖
党
兜
兢
入
內
全
兩
八
公
六
兮
兰
共
兲
关
兴
兵
其
具
典
兹
养
兼
兽
冀
内
円
冇
冈
冉
冊
册
再
冏
冒
冕
冗
写
军
农
冠
冢
冤
冥
冨
冪
冬
冯
冰
冲
决
况
冶
冷
冻
冼
冽
冾
净
凄
准
凇
凈
凉
凋
凌
凍
减
凑
凛
凜
凝
几
凡
凤
処
凪
凭
凯
凰
凱
凳
凶
凸
凹
出
击
函
凿
刀
刁
刃
分
切
刈
刊
刍
刎
刑
划
列
刘
则
刚
创
初
删
判
別
刨
利
刪
别
刮
到
制
刷
券
刹
刺
刻
刽
剁
剂
剃
則
剉
削
剋
剌
前
剎
剐
剑
剔
剖
剛
剜
剝
剣
剤
剥
剧
剩
剪
副
割
創
剷
剽
剿
劃
劇
劈
劉
劊
劍
劏
劑
力
劝
办
功
加
务
劣
动
助
努
劫
劭
励
劲
劳
労
劵
効
劾
势
勁
勃
勇
勉
勋
勐
勒
動
勖
勘
務
勛
勝
勞
募
勢
勤
勧
勳
勵
勸
勺
勻
勾
勿
匀
包
匆
匈
匍
匐
匕
化
北
匙
匝
匠
匡
匣
匪
匮
匯
匱
匹
区
医
匾
匿
區
十
千
卅
升
午
卉
半
卍
华
协
卑
卒
卓
協
单
卖
南
単
博
卜
卞
卟
占
卡
卢
卤
卦
卧
卫
卮
卯
印
危
即
却
卵
卷
卸
卻
卿
厂
厄
厅
历
厉
压
厌
厕
厘
厚
厝
原
厢
厥
厦
厨
厩
厭
厮
厲
厳
去
县
叁
参
參
又
叉
及
友
双
反
収
发
叔
取
受
变
叙
叛
叟
叠
叡
叢
口
古
句
另
叨
叩
只
叫
召
叭
叮
可
台
叱
史
右
叵
叶
号
司
叹
叻
叼
叽
吁
吃
各
吆
合
吉
吊
吋
同
名
后
吏
吐
向
吒
吓
吕
吖
吗
君
吝
吞
吟
吠
吡
否
吧
吨
吩
含
听
吭
吮
启
吱
吳
吴
吵
吶
吸
吹
吻
吼
吽
吾
呀
呂
呃
呆
呈
告
呋
呎
呐
呓
呕
呗
员
呛
呜
呢
呤
呦
周
呱
呲
味
呵
呷
呸
呻
呼
命
咀
咁
咂
咄
咆
咋
和
咎
咏
咐
咒
咔
咕
咖
咗
咘
咙
咚
咛
咣
咤
咦
咧
咨
咩
咪
咫
咬
咭
咯
咱
咲
咳
咸
咻
咽
咿
哀
品
哂
哄
哆
哇
哈
哉
哋
哌
响
哎
哏
哐
哑
哒
哔
哗
哟
員
哥
哦
哧
哨
哩
哪
哭
哮
哲
哺
哼
哽
唁
唄
唆
唇
唉
唏
唐
唑
唔
唠
唤
唧
唬
售
唯
唰
唱
唳
唷
唸
唾
啃
啄
商
啉
啊
問
啓
啕
啖
啜
啞
啟
啡
啤
啥
啦
啧
啪
啫
啬
啮
啰
啱
啲
啵
啶
啷
啸
啻
啼
啾
喀
喂
喃
善
喆
喇
喉
喊
喋
喎
喏
喔
喘
喙
喚
喜
喝
喟
喧
喪
喫
喬
單
喰
喱
喲
喳
喵
営
喷
喹
喺
喻
喽
嗅
嗆
嗇
嗎
嗑
嗒
嗓
嗔
嗖
嗚
嗜
嗝
嗟
嗡
嗣
嗤
嗦
嗨
嗪
嗬
嗯
嗰
嗲
嗳
嗶
嗷
嗽
嘀
嘅
嘆
嘈
嘉
嘌
嘍
嘎
嘔
嘖
嘗
嘘
嘚
嘛
嘜
嘞
嘟
嘢
嘣
嘤
嘧
嘩
嘭
嘮
嘯
嘰
嘱
嘲
嘴
嘶
嘸
嘹
嘻
嘿
噁
噌
噎
噓
噔
噗
噙
噜
噠
噢
噤
器
噩
噪
噬
噱
噴
噶
噸
噹
噻
噼
嚀
嚇
嚎
嚏
嚐
嚓
嚕
嚟
嚣
嚥
嚨
嚮
嚴
嚷
嚼
囂
囉
囊
囍
囑
囔
囗
囚
四
囝
回
囟
因
囡
团
団
囤
囧
囪
囫
园
困
囱
囲
図
围
囹
固
国
图
囿
圃
圄
圆
圈
國
圍
圏
園
圓
圖
團
圜
土
圣
圧
在
圩
圭
地
圳
场
圻
圾
址
坂
均
坊
坍
坎
坏
坐
坑
块
坚
坛
坝
坞
坟
坠
坡
坤
坦
坨
坪
坯
坳
坵
坷
垂
垃
垄
型
垒
垚
垛
垠
垢
垣
垦
垩
垫
垭
垮
垵
埂
埃
埋
城
埔
埕
埗
域
埠
埤
埵
執
埸
培
基
埼
堀
堂
堃
堅
堆
堇
堑
堕
堙
堡
堤
堪
堯
堰
報
場
堵
堺
堿
塊
塌
塑
塔
塗
塘
塚
塞
塢
塩
填
塬
塭
塵
塾
墀
境
墅
墉
墊
墒
墓
増
墘
墙
墜
增
墟
墨
墩
墮
墳
墻
墾
壁
壅
壆
壇
壊
壑
壓
壕
壘
壞
壟
壢
壤
壩
士
壬
壮
壯
声
売
壳
壶
壹
壺
壽
处
备
変
复
夏
夔
夕
外
夙
多
夜
够
夠
夢
夥
大
天
太
夫
夭
央
夯
失
头
夷
夸
夹
夺
夾
奂
奄
奇
奈
奉
奋
奎
奏
奐
契
奔
奕
奖
套
奘
奚
奠
奢
奥
奧
奪
奬
奮
女
奴
奶
奸
她
好
如
妃
妄
妆
妇
妈
妊
妍
妒
妓
妖
妘
妙
妝
妞
妣
妤
妥
妨
妩
妪
妮
妲
妳
妹
妻
妾
姆
姉
姊
始
姍
姐
姑
姒
姓
委
姗
姚
姜
姝
姣
姥
姦
姨
姪
姫
姬
姹
姻
姿
威
娃
娄
娅
娆
娇
娉
娑
娓
娘
娛
娜
娟
娠
娣
娥
娩
娱
娲
娴
娶
娼
婀
婁
婆
婉
婊
婕
婚
婢
婦
婧
婪
婭
婴
婵
婶
婷
婺
婿
媒
媚
媛
媞
媧
媲
媳
媽
媾
嫁
嫂
嫉
嫌
嫑
嫔
嫖
嫘
嫚
嫡
嫣
嫦
嫩
嫲
嫵
嫻
嬅
嬉
嬌
嬗
嬛
嬢
嬤
嬪
嬰
嬴
嬷
嬸
嬿
孀
孃
子
孑
孔
孕
孖
字
存
孙
孚
孛
孜
孝
孟
孢
季
孤
学
孩
孪
孫
孬
孰
孱
孳
孵
學
孺
孽
孿
宁
它
宅
宇
守
安
宋
完
宏
宓
宕
宗
官
宙
定
宛
宜
宝
实
実
宠
审
客
宣
室
宥
宦
宪
宫
宮
宰
害
宴
宵
家
宸
容
宽
宾
宿
寂
寄
寅
密
寇
富
寐
寒
寓
寛
寝
寞
察
寡
寢
寥
實
寧
寨
審
寫
寬
寮
寰
寵
寶
寸
对
寺
寻
导
対
寿
封
専
射
将
將
專
尉
尊
尋
對
導
小
少
尔
尕
尖
尘
尚
尝
尤
尧
尬
就
尴
尷
尸
尹
尺
尻
尼
尽
尾
尿
局
屁
层
屄
居
屆
屈
屉
届
屋
屌
屍
屎
屏
屐
屑
展
屜
属
屠
屡
屢
層
履
屬
屯
山
屹
屿
岀
岁
岂
岌
岐
岑
岔
岖
岗
岘
岙
岚
岛
岡
岩
岫
岬
岭
岱
岳
岷
岸
峇
峋
峒
峙
峡
峤
峥
峦
峨
峪
峭
峯
峰
峴
島
峻
峽
崁
崂
崆
崇
崎
崑
崔
崖
崗
崙
崛
崧
崩
崭
崴
崽
嵇
嵊
嵋
嵌
嵐
嵘
嵩
嵬
嵯
嶂
嶄
嶇
嶋
嶙
嶺
嶼
嶽
巅
巍
巒
巔
巖
川
州
巡
巢
工
左
巧
巨
巩
巫
差
己
已
巳
巴
巷
巻
巽
巾
巿
币
市
布
帅
帆
师
希
帐
帑
帕
帖
帘
帚
帛
帜
帝
帥
带
帧
師
席
帮
帯
帰
帳
帶
帷
常
帼
帽
幀
幂
幄
幅
幌
幔
幕
幟
幡
幢
幣
幫
干
平
年
并
幸
幹
幺
幻
幼
幽
幾
广
庁
広
庄
庆
庇
床
序
庐
库
应
底
庖
店
庙
庚
府
庞
废
庠
度
座
庫
庭
庵
庶
康
庸
庹
庾
廁
廂
廃
廈
廉
廊
廓
廖
廚
廝
廟
廠
廢
廣
廬
廳
延
廷
建
廿
开
弁
异
弃
弄
弈
弊
弋
式
弑
弒
弓
弔
引
弗
弘
弛
弟
张
弥
弦
弧
弩
弭
弯
弱
張
強
弹
强
弼
弾
彅
彆
彈
彌
彎
归
当
录
彗
彙
彝
形
彤
彥
彦
彧
彩
彪
彫
彬
彭
彰
影
彷
役
彻
彼
彿
往
征
径
待
徇
很
徉
徊
律
後
徐
徑
徒
従
徕
得
徘
徙
徜
從
徠
御
徨
復
循
徬
微
徳
徴
徵
德
徹
徼
徽
心
必
忆
忌
忍
忏
忐
忑
忒
忖
志
忘
忙
応
忠
忡
忤
忧
忪
快
忱
念
忻
忽
忿
怀
态
怂
怅
怆
怎
怏
怒
怔
怕
怖
怙
怜
思
怠
怡
急
怦
性
怨
怪
怯
怵
总
怼
恁
恃
恆
恋
恍
恐
恒
恕
恙
恚
恢
恣
恤
恥
恨
恩
恪
恫
恬
恭
息
恰
恳
恵
恶
恸
恺
恻
恼
恿
悄
悅
悉
悌
悍
悔
悖
悚
悟
悠
患
悦
您
悩
悪
悬
悯
悱
悲
悴
悵
悶
悸
悻
悼
悽
情
惆
惇
惊
惋
惑
惕
惘
惚
惜
惟
惠
惡
惦
惧
惨
惩
惫
惬
惭
惮
惯
惰
惱
想
惴
惶
惹
惺
愁
愆
愈
愉
愍
意
愕
愚
愛
愜
感
愣
愤
愧
愫
愷
愿
慄
慈
態
慌
慎
慑
慕
慘
慚
慟
慢
慣
慧
慨
慫
慮
慰
慳
慵
慶
慷
慾
憂
憊
憋
憎
憐
憑
憔
憚
憤
憧
憨
憩
憫
憬
憲
憶
憾
懂
懇
懈
應
懊
懋
懑
懒
懦
懲
懵
懶
懷
懸
懺
懼
懾
懿
戀
戈
戊
戌
戍
戎
戏
成
我
戒
戕
或
战
戚
戛
戟
戡
戦
截
戬
戮
戰
戲
戳
戴
戶
户
戸
戻
戾
房
所
扁
扇
扈
扉
手
才
扎
扑
扒
打
扔
払
托
扛
扣
扦
执
扩
扪
扫
扬
扭
扮
扯
扰
扱
扳
扶
批
扼
找
承
技
抄
抉
把
抑
抒
抓
投
抖
抗
折
抚
抛
抜
択
抟
抠
抡
抢
护
报
抨
披
抬
抱
抵
抹
押
抽
抿
拂
拄
担
拆
拇
拈
拉
拋
拌
拍
拎
拐
拒
拓
拔
拖
拗
拘
拙
拚
招
拜
拟
拡
拢
拣
拥
拦
拧
拨
择
括
拭
拮
拯
拱
拳
拴
拷
拼
拽
拾
拿
持
挂
指
挈
按
挎
挑
挖
挙
挚
挛
挝
挞
挟
挠
挡
挣
挤
挥
挨
挪
挫
振
挲
挹
挺
挽
挾
捂
捅
捆
捉
捋
捌
捍
捎
捏
捐
捕
捞
损
捡
换
捣
捧
捨
捩
据
捱
捲
捶
捷
捺
捻
掀
掂
掃
掇
授
掉
掌
掏
掐
排
掖
掘
掙
掛
掠
採
探
掣
接
控
推
掩
措
掬
掰
掲
掳
掴
掷
掸
掺
揀
揃
揄
揆
揉
揍
描
提
插
揖
揚
換
握
揣
揩
揪
揭
揮
援
揶
揸
揹
揽
搀
搁
搂
搅
損
搏
搐
搓
搔
搖
搗
搜
搞
搡
搪
搬
搭
搵
搶
携
搽
摀
摁
摄
摆
摇
摈
摊
摒
摔
摘
摞
摟
摧
摩
摯
摳
摸
摹
摺
摻
撂
撃
撅
撇
撈
撐
撑
撒
撓
撕
撚
撞
撤
撥
撩
撫
撬
播
撮
撰
撲
撵
撷
撸
撻
撼
撿
擀
擁
擂
擄
擅
擇
擊
擋
操
擎
擒
擔
擘
據
擞
擠
擡
擢
擦
擬
擰
擱
擲
擴
擷
擺
擼
擾
攀
攏
攒
攔
攘
攙
攜
攝
攞
攢
攣
攤
攥
攪
攫
攬
支
收
攸
改
攻
放
政
故
效
敌
敍
敎
敏
救
敕
敖
敗
敘
教
敛
敝
敞
敢
散
敦
敬
数
敲
整
敵
敷
數
斂
斃
文
斋
斌
斎
斐
斑
斓
斗
料
斛
斜
斟
斡
斤
斥
斧
斩
斫
斬
断
斯
新
斷
方
於
施
旁
旃
旅
旋
旌
旎
族
旖
旗
无
既
日
旦
旧
旨
早
旬
旭
旮
旱
时
旷
旺
旻
昀
昂
昆
昇
昉
昊
昌
明
昏
易
昔
昕
昙
星
映
春
昧
昨
昭
是
昱
昴
昵
昶
昼
显
晁
時
晃
晉
晋
晌
晏
晒
晓
晔
晕
晖
晗
晚
晝
晞
晟
晤
晦
晨
晩
普
景
晰
晴
晶
晷
智
晾
暂
暄
暇
暈
暉
暌
暐
暑
暖
暗
暝
暢
暧
暨
暫
暮
暱
暴
暸
暹
曄
曆
曇
曉
曖
曙
曜
曝
曠
曦
曬
曰
曲
曳
更
書
曹
曼
曾
替
最
會
月
有
朋
服
朐
朔
朕
朗
望
朝
期
朦
朧
木
未
末
本
札
朮
术
朱
朴
朵
机
朽
杀
杂
权
杆
杈
杉
李
杏
材
村
杓
杖
杜
杞
束
杠
条
来
杨
杭
杯
杰
東
杳
杵
杷
杼
松
板
极
构
枇
枉
枋
析
枕
林
枚
果
枝
枢
枣
枪
枫
枭
枯
枰
枱
枳
架
枷
枸
柄
柏
某
柑
柒
染
柔
柘
柚
柜
柞
柠
柢
查
柩
柬
柯
柱
柳
柴
柵
査
柿
栀
栃
栄
栅
标
栈
栉
栋
栎
栏
树
栓
栖
栗
校
栩
株
样
核
根
格
栽
栾
桀
桁
桂
桃
桅
框
案
桉
桌
桎
桐
桑
桓
桔
桜
桠
桡
桢
档
桥
桦
桧
桨
桩
桶
桿
梁
梅
梆
梏
梓
梗
條
梟
梢
梦
梧
梨
梭
梯
械
梳
梵
梶
检
棂
棄
棉
棋
棍
棒
棕
棗
棘
棚
棟
棠
棣
棧
森
棱
棲
棵
棹
棺
椁
椅
椋
植
椎
椒
検
椪
椭
椰
椹
椽
椿
楂
楊
楓
楔
楚
楝
楞
楠
楣
楨
楫
業
楮
極
楷
楸
楹
楼
楽
概
榄
榆
榈
榉
榔
榕
榖
榛
榜
榨
榫
榭
榮
榱
榴
榷
榻
槁
槃
構
槌
槍
槎
槐
槓
様
槛
槟
槤
槭
槲
槳
槻
槽
槿
樁
樂
樊
樑
樓
標
樞
樟
模
樣
権
横
樫
樯
樱
樵
樸
樹
樺
樽
樾
橄
橇
橋
橐
橘
橙
機
橡
橢
橫
橱
橹
橼
檀
檄
檎
檐
檔
檗
檜
檢
檬
檯
檳
檸
檻
櫃
櫚
櫛
櫥
櫸
櫻
欄
權
欒
欖
欠
次
欢
欣
欧
欲
欸
欺
欽
款
歆
歇
歉
歌
歎
歐
歓
歙
歛
歡
止
正
此
步
武
歧
歩
歪
歯
歲
歳
歴
歷
歸
歹
死
歼
殁
殃
殆
殇
殉
殊
残
殒
殓
殖
殘
殞
殡
殤
殭
殯
殲
殴
段
殷
殺
殼
殿
毀
毁
毂
毅
毆
毋
母
毎
每
毒
毓
比
毕
毗
毘
毙
毛
毡
毫
毯
毽
氈
氏
氐
民
氓
气
氖
気
氙
氛
氟
氡
氢
氣
氤
氦
氧
氨
氪
氫
氮
氯
氰
氲
水
氷
永
氹
氾
汀
汁
求
汆
汇
汉
汎
汐
汕
汗
汙
汛
汝
汞
江
池
污
汤
汨
汩
汪
汰
汲
汴
汶
汹
決
汽
汾
沁
沂
沃
沅
沈
沉
沌
沏
沐
沒
沓
沖
沙
沛
沟
没
沢
沣
沥
沦
沧
沪
沫
沭
沮
沱
河
沸
油
治
沼
沽
沾
沿
況
泄
泉
泊
泌
泓
法
泗
泛
泞
泠
泡
波
泣
泥
注
泪
泫
泮
泯
泰
泱
泳
泵
泷
泸
泻
泼
泽
泾
洁
洄
洋
洒
洗
洙
洛
洞
津
洩
洪
洮
洱
洲
洵
洶
洸
洹
活
洼
洽
派
流
浃
浄
浅
浆
浇
浊
测
济
浏
浑
浒
浓
浔
浙
浚
浜
浣
浦
浩
浪
浬
浮
浯
浴
海
浸
涂
涅
涇
消
涉
涌
涎
涓
涔
涕
涙
涛
涝
涞
涟
涠
涡
涣
涤
润
涧
涨
涩
涪
涮
涯
液
涵
涸
涼
涿
淀
淄
淅
淆
淇
淋
淌
淑
淒
淖
淘
淙
淚
淞
淡
淤
淦
淨
淩
淪
淫
淬
淮
深
淳
淵
混
淹
淺
添
淼
清
済
渉
渊
渋
渍
渎
渐
渔
渗
渙
渚
減
渝
渠
渡
渣
渤
渥
渦
温
測
渭
港
渲
渴
游
渺
渾
湃
湄
湊
湍
湖
湘
湛
湟
湧
湫
湮
湯
湳
湾
湿
満
溃
溅
溉
溏
源
準
溜
溝
溟
溢
溥
溧
溪
溫
溯
溱
溴
溶
溺
溼
滁
滂
滄
滅
滇
滋
滌
滑
滓
滔
滕
滙
滚
滝
滞
滟
满
滢
滤
滥
滦
滨
滩
滬
滯
滲
滴
滷
滸
滾
滿
漁
漂
漆
漉
漏
漓
演
漕
漠
漢
漣
漩
漪
漫
漬
漯
漱
漲
漳
漸
漾
漿
潆
潇
潋
潍
潑
潔
潘
潛
潜
潞
潟
潢
潤
潦
潧
潭
潮
潰
潴
潸
潺
潼
澀
澄
澆
澈
澍
澎
澗
澜
澡
澤
澧
澱
澳
澹
激
濁
濂
濃
濑
濒
濕
濘
濛
濟
濠
濡
濤
濫
濬
濮
濯
濱
濺
濾
瀅
瀆
瀉
瀋
瀏
瀑
瀕
瀘
瀚
瀛
瀝
瀞
瀟
瀧
瀨
瀬
瀰
瀾
灌
灏
灑
灘
灝
灞
灣
火
灬
灭
灯
灰
灵
灶
灸
灼
災
灾
灿
炀
炁
炅
炉
炊
炎
炒
炔
炕
炖
炙
炜
炫
炬
炭
炮
炯
炳
炷
炸
点
為
炼
炽
烁
烂
烃
烈
烊
烏
烘
烙
烛
烟
烤
烦
烧
烨
烩
烫
烬
热
烯
烷
烹
烽
焉
焊
焕
焖
焗
焘
焙
焚
焜
無
焦
焯
焰
焱
然
焼
煅
煉
煊
煌
煎
煒
煖
煙
煜
煞
煤
煥
煦
照
煨
煩
煮
煲
煸
煽
熄
熊
熏
熒
熔
熙
熟
熠
熨
熬
熱
熵
熹
熾
燁
燃
燄
燈
燉
燊
燎
燒
燔
燕
燙
燜
營
燥
燦
燧
燭
燮
燴
燻
燼
燿
爆
爍
爐
爛
爪
爬
爭
爰
爱
爲
爵
父
爷
爸
爹
爺
爻
爽
爾
牆
片
版
牌
牍
牒
牙
牛
牝
牟
牠
牡
牢
牦
牧
物
牯
牲
牴
牵
特
牺
牽
犀
犁
犄
犊
犍
犒
犢
犧
犬
犯
状
犷
犸
犹
狀
狂
狄
狈
狎
狐
狒
狗
狙
狞
狠
狡
狩
独
狭
狮
狰
狱
狸
狹
狼
狽
猎
猕
猖
猗
猙
猛
猜
猝
猥
猩
猪
猫
猬
献
猴
猶
猷
猾
猿
獄
獅
獎
獐
獒
獗
獠
獣
獨
獭
獰
獲
獵
獷
獸
獺
獻
獼
獾
玄
率
玉
王
玑
玖
玛
玟
玠
玥
玩
玫
玮
环
现
玲
玳
玷
玺
玻
珀
珂
珅
珈
珉
珊
珍
珏
珐
珑
珙
珞
珠
珣
珥
珩
珪
班
珮
珲
珺
現
球
琅
理
琇
琉
琊
琍
琏
琐
琛
琢
琥
琦
琨
琪
琬
琮
琰
琲
琳
琴
琵
琶
琺
琼
瑀
瑁
瑄
瑋
瑕
瑗
瑙
瑚
瑛
瑜
瑞
瑟
瑠
瑣
瑤
瑩
瑪
瑯
瑰
瑶
瑾
璀
璁
璃
璇
璉
璋
璎
璐
璜
璞
璟
璧
璨
環
璽
璿
瓊
瓏
瓒
瓜
瓢
瓣
瓤
瓦
瓮
瓯
瓴
瓶
瓷
甄
甌
甕
甘
甙
甚
甜
生
產
産
甥
甦
用
甩
甫
甬
甭
甯
田
由
甲
申
电
男
甸
町
画
甾
畀
畅
界
畏
畑
畔
留
畜
畝
畢
略
畦
番
畫
異
畲
畳
畴
當
畸
畹
畿
疆
疇
疊
疏
疑
疔
疖
疗
疙
疚
疝
疟
疡
疣
疤
疥
疫
疮
疯
疱
疲
疳
疵
疸
疹
疼
疽
疾
痂
病
症
痈
痉
痊
痍
痒
痔
痕
痘
痙
痛
痞
痠
痢
痣
痤
痧
痨
痪
痫
痰
痱
痴
痹
痺
痼
痿
瘀
瘁
瘋
瘍
瘓
瘘
瘙
瘟
瘠
瘡
瘢
瘤
瘦
瘧
瘩
瘪
瘫
瘴
瘸
瘾
療
癇
癌
癒
癖
癜
癞
癡
癢
癣
癥
癫
癬
癮
癱
癲
癸
発
登
發
白
百
皂
的
皆
皇
皈
皋
皎
皑
皓
皖
皙
皚
皮
皰
皱
皴
皺
皿
盂
盃
盅
盆
盈
益
盎
盏
盐
监
盒
盔
盖
盗
盘
盛
盜
盞
盟
盡
監
盤
盥
盧
盪
目
盯
盱
盲
直
相
盹
盼
盾
省
眈
眉
看
県
眙
眞
真
眠
眦
眨
眩
眯
眶
眷
眸
眺
眼
眾
着
睁
睇
睏
睐
睑
睛
睜
睞
睡
睢
督
睥
睦
睨
睪
睫
睬
睹
睽
睾
睿
瞄
瞅
瞇
瞋
瞌
瞎
瞑
瞒
瞓
瞞
瞟
瞠
瞥
瞧
瞩
瞪
瞬
瞭
瞰
瞳
瞻
瞼
瞿
矇
矍
矗
矚
矛
矜
矢
矣
知
矩
矫
短
矮
矯
石
矶
矽
矾
矿
码
砂
砌
砍
砒
研
砖
砗
砚
砝
砣
砥
砧
砭
砰
砲
破
砷
砸
砺
砼
砾
础
硅
硐
硒
硕
硝
硫
硬
确
硯
硼
碁
碇
碉
碌
碍
碎
碑
碓
碗
碘
碚
碛
碟
碣
碧
碩
碰
碱
碳
碴
確
碼
碾
磁
磅
磊
磋
磐
磕
磚
磡
磨
磬
磯
磲
磷
磺
礁
礎
礙
礡
礦
礪
礫
礴
示
礼
社
祀
祁
祂
祇
祈
祉
祎
祐
祕
祖
祗
祚
祛
祜
祝
神
祟
祠
祢
祥
票
祭
祯
祷
祸
祺
祿
禀
禁
禄
禅
禍
禎
福
禛
禦
禧
禪
禮
禱
禹
禺
离
禽
禾
禿
秀
私
秃
秆
秉
秋
种
科
秒
秘
租
秣
秤
秦
秧
秩
秭
积
称
秸
移
秽
稀
稅
程
稍
税
稔
稗
稚
稜
稞
稟
稠
稣
種
稱
稲
稳
稷
稹
稻
稼
稽
稿
穀
穂
穆
穌
積
穎
穗
穢
穩
穫
穴
究
穷
穹
空
穿
突
窃
窄
窈
窍
窑
窒
窓
窕
窖
窗
窘
窜
窝
窟
窠
窥
窦
窨
窩
窪
窮
窯
窺
窿
竄
竅
竇
竊
立
竖
站
竜
竞
竟
章
竣
童
竭
端
競
竹
竺
竽
竿
笃
笆
笈
笋
笏
笑
笔
笙
笛
笞
笠
符
笨
第
笹
笺
笼
筆
等
筊
筋
筍
筏
筐
筑
筒
答
策
筛
筝
筠
筱
筲
筵
筷
筹
签
简
箇
箋
箍
箏
箐
箔
箕
算
箝
管
箩
箫
箭
箱
箴
箸
節
篁
範
篆
篇
築
篑
篓
篙
篝
篠
篡
篤
篩
篪
篮
篱
篷
簇
簌
簍
簡
簦
簧
簪
簫
簷
簸
簽
簾
簿
籁
籃
籌
籍
籐
籟
籠
籤
籬
籮
籲
米
类
籼
籽
粄
粉
粑
粒
粕
粗
粘
粟
粤
粥
粧
粪
粮
粱
粲
粳
粵
粹
粼
粽
精
粿
糅
糊
糍
糕
糖
糗
糙
糜
糞
糟
糠
糧
糬
糯
糰
糸
系
糾
紀
紂
約
紅
紉
紊
紋
納
紐
紓
純
紗
紘
紙
級
紛
紜
素
紡
索
紧
紫
紮
累
細
紳
紹
紺
終
絃
組
絆
経
結
絕
絞
絡
絢
給
絨
絮
統
絲
絳
絵
絶
絹
綁
綏
綑
經
継
続
綜
綠
綢
綦
綫
綬
維
綱
網
綴
綵
綸
綺
綻
綽
綾
綿
緊
緋
総
緑
緒
緘
線
緝
緞
締
緣
編
緩
緬
緯
練
緹
緻
縁
縄
縈
縛
縝
縣
縫
縮
縱
縴
縷
總
績
繁
繃
繆
繇
繋
織
繕
繚
繞
繡
繩
繪
繫
繭
繳
繹
繼
繽
纂
續
纍
纏
纓
纔
纖
纜
纠
红
纣
纤
约
级
纨
纪
纫
纬
纭
纯
纰
纱
纲
纳
纵
纶
纷
纸
纹
纺
纽
纾
线
绀
练
组
绅
细
织
终
绊
绍
绎
经
绑
绒
结
绔
绕
绘
给
绚
绛
络
绝
绞
统
绡
绢
绣
绥
绦
继
绩
绪
绫
续
绮
绯
绰
绳
维
绵
绶
绷
绸
绻
综
绽
绾
绿
缀
缄
缅
缆
缇
缈
缉
缎
缓
缔
缕
编
缘
缙
缚
缜
缝
缠
缢
缤
缥
缨
缩
缪
缭
缮
缰
缱
缴
缸
缺
缽
罂
罄
罌
罐
网
罔
罕
罗
罚
罡
罢
罩
罪
置
罰
署
罵
罷
罹
羁
羅
羈
羊
羌
美
羔
羚
羞
羟
羡
羣
群
羥
羧
羨
義
羯
羲
羸
羹
羽
羿
翁
翅
翊
翌
翎
習
翔
翘
翟
翠
翡
翦
翩
翰
翱
翳
翹
翻
翼
耀
老
考
耄
者
耆
耋
而
耍
耐
耒
耕
耗
耘
耙
耦
耨
耳
耶
耷
耸
耻
耽
耿
聂
聆
聊
聋
职
聒
联
聖
聘
聚
聞
聪
聯
聰
聲
聳
聴
聶
職
聽
聾
聿
肃
肄
肅
肆
肇
肉
肋
肌
肏
肓
肖
肘
肚
肛
肝
肠
股
肢
肤
肥
肩
肪
肮
肯
肱
育
肴
肺
肽
肾
肿
胀
胁
胃
胄
胆
背
胍
胎
胖
胚
胛
胜
胝
胞
胡
胤
胥
胧
胫
胭
胯
胰
胱
胳
胴
胶
胸
胺
能
脂
脅
脆
脇
脈
脉
脊
脍
脏
脐
脑
脓
脖
脘
脚
脛
脣
脩
脫
脯
脱
脲
脳
脸
脹
脾
腆
腈
腊
腋
腌
腎
腐
腑
腓
腔
腕
腥
腦
腩
腫
腭
腮
腰
腱
腳
腴
腸
腹
腺
腻
腼
腾
腿
膀
膈
膊
膏
膑
膘
膚
膛
膜
膝
膠
膦
膨
膩
膳
膺
膻
膽
膾
膿
臀
臂
臃
臆
臉
臊
臍
臓
臘
臟
臣
臥
臧
臨
自
臬
臭
至
致
臺
臻
臼
臾
舀
舂
舅
舆
與
興
舉
舊
舌
舍
舎
舐
舒
舔
舖
舗
舛
舜
舞
舟
航
舫
般
舰
舱
舵
舶
舷
舸
船
舺
舾
艇
艋
艘
艙
艦
艮
良
艰
艱
色
艳
艷
艹
艺
艾
节
芃
芈
芊
芋
芍
芎
芒
芙
芜
芝
芡
芥
芦
芩
芪
芫
芬
芭
芮
芯
花
芳
芷
芸
芹
芻
芽
芾
苁
苄
苇
苋
苍
苏
苑
苒
苓
苔
苕
苗
苛
苜
苞
苟
苡
苣
若
苦
苫
苯
英
苷
苹
苻
茁
茂
范
茄
茅
茉
茎
茏
茗
茜
茧
茨
茫
茬
茭
茯
茱
茲
茴
茵
茶
茸
茹
茼
荀
荃
荆
草
荊
荏
荐
荒
荔
荖
荘
荚
荞
荟
荠
荡
荣
荤
荥
荧
荨
荪
荫
药
荳
荷
荸
荻
荼
荽
莅
莆
莉
莊
莎
莒
莓
莖
莘
莞
莠
莢
莧
莪
莫
莱
莲
莴
获
莹
莺
莽
莿
菀
菁
菅
菇
菈
菊
菌
菏
菓
菖
菘
菜
菟
菠
菡
菩
華
菱
菲
菸
菽
萁
萃
萄
萊
萋
萌
萍
萎
萘
萝
萤
营
萦
萧
萨
萩
萬
萱
萵
萸
萼
落
葆
葉
著
葚
葛
葡
董
葦
葩
葫
葬
葭
葯
葱
葳
葵
葷
葺
蒂
蒋
蒐
蒔
蒙
蒜
蒞
蒟
蒡
蒨
蒲
蒸
蒹
蒻
蒼
蒿
蓁
蓄
蓆
蓉
蓋
蓑
蓓
蓖
蓝
蓟
蓦
蓬
蓮
蓼
蓿
蔑
蔓
蔔
蔗
蔘
蔚
蔡
蔣
蔥
蔫
蔬
蔭
蔵
蔷
蔺
蔻
蔼
蔽
蕁
蕃
蕈
蕉
蕊
蕎
蕙
蕤
蕨
蕩
蕪
蕭
蕲
蕴
蕻
蕾
薄
薅
薇
薈
薊
薏
薑
薔
薙
薛
薦
薨
薩
薪
薬
薯
薰
薹
藉
藍
藏
藐
藓
藕
藜
藝
藤
藥
藩
藹
藻
藿
蘆
蘇
蘊
蘋
蘑
蘚
蘭
蘸
蘼
蘿
虎
虏
虐
虑
虔
處
虚
虛
虜
虞
號
虢
虧
虫
虬
虱
虹
虻
虽
虾
蚀
蚁
蚂
蚊
蚌
蚓
蚕
蚜
蚝
蚣
蚤
蚩
蚪
蚯
蚱
蚵
蛀
蛆
蛇
蛊
蛋
蛎
蛐
蛔
蛙
蛛
蛟
蛤
蛭
蛮
蛰
蛳
蛹
蛻
蛾
蜀
蜂
蜃
蜆
蜇
蜈
蜊
蜍
蜒
蜓
蜕
蜗
蜘
蜚
蜜
蜡
蜢
蜥
蜱
蜴
蜷
蜻
蜿
蝇
蝈
蝉
蝌
蝎
蝕
蝗
蝙
蝟
蝠
蝦
蝨
蝴
蝶
蝸
蝼
螂
螃
融
螞
螢
螨
螯
螳
螺
蟀
蟄
蟆
蟋
蟎
蟑
蟒
蟠
蟬
蟲
蟹
蟻
蟾
蠅
蠍
蠔
蠕
蠛
蠟
蠡
蠢
蠣
蠱
蠶
蠹
蠻
血
衄
衅
衆
行
衍
術
衔
街
衙
衛
衝
衞
衡
衢
衣
补
表
衩
衫
衬
衮
衰
衲
衷
衹
衾
衿
袁
袂
袄
袅
袈
袋
袍
袒
袖
袜
袞
袤
袪
被
袭
袱
裁
裂
装
裆
裊
裏
裔
裕
裘
裙
補
裝
裟
裡
裤
裨
裱
裳
裴
裸
裹
製
裾
褂
複
褐
褒
褓
褔
褚
褥
褪
褫
褲
褶
褻
襁
襄
襟
襠
襪
襬
襯
襲
西
要
覃
覆
覇
見
規
覓
視
覚
覦
覧
親
覬
観
覷
覺
覽
觀
见
观
规
觅
视
览
觉
觊
觎
觐
觑
角
觞
解
觥
触
觸
言
訂
計
訊
討
訓
訕
訖
託
記
訛
訝
訟
訣
訥
訪
設
許
訳
訴
訶
診
註
証
詆
詐
詔
評
詛
詞
詠
詡
詢
詣
試
詩
詫
詬
詭
詮
詰
話
該
詳
詹
詼
誅
誇
誉
誌
認
誓
誕
誘
語
誠
誡
誣
誤
誥
誦
誨
說
説
読
誰
課
誹
誼
調
諄
談
請
諏
諒
論
諗
諜
諡
諦
諧
諫
諭
諮
諱
諳
諷
諸
諺
諾
謀
謁
謂
謄
謊
謎
謐
謔
謗
謙
講
謝
謠
謨
謬
謹
謾
譁
證
譎
譏
識
譙
譚
譜
警
譬
譯
議
譲
譴
護
譽
讀
變
讓
讚
讞
计
订
认
讥
讧
讨
让
讪
讫
训
议
讯
记
讲
讳
讴
讶
讷
许
讹
论
讼
讽
设
访
诀
证
诃
评
诅
识
诈
诉
诊
诋
词
诏
译
试
诗
诘
诙
诚
诛
话
诞
诟
诠
诡
询
诣
诤
该
详
诧
诩
诫
诬
语
误
诰
诱
诲
说
诵
诶
请
诸
诺
读
诽
课
诿
谀
谁
调
谄
谅
谆
谈
谊
谋
谌
谍
谎
谏
谐
谑
谒
谓
谔
谕
谗
谘
谙
谚
谛
谜
谟
谢
谣
谤
谥
谦
谧
谨
谩
谪
谬
谭
谯
谱
谲
谴
谶
谷
豁
豆
豇
豈
豉
豊
豌
豎
豐
豔
豚
象
豢
豪
豫
豬
豹
豺
貂
貅
貌
貓
貔
貘
貝
貞
負
財
貢
貧
貨
販
貪
貫
責
貯
貰
貳
貴
貶
買
貸
費
貼
貽
貿
賀
賁
賂
賃
賄
資
賈
賊
賑
賓
賜
賞
賠
賡
賢
賣
賤
賦
質
賬
賭
賴
賺
購
賽
贅
贈
贊
贍
贏
贓
贖
贛
贝
贞
负
贡
财
责
贤
败
账
货
质
贩
贪
贫
贬
购
贮
贯
贰
贱
贲
贴
贵
贷
贸
费
贺
贻
贼
贾
贿
赁
赂
赃
资
赅
赈
赊
赋
赌
赎
赏
赐
赓
赔
赖
赘
赚
赛
赝
赞
赠
赡
赢
赣
赤
赦
赧
赫
赭
走
赳
赴
赵
赶
起
趁
超
越
趋
趕
趙
趟
趣
趨
足
趴
趵
趸
趺
趾
跃
跄
跆
跋
跌
跎
跑
跖
跚
跛
距
跟
跡
跤
跨
跩
跪
路
跳
践
跷
跹
跺
跻
踉
踊
踌
踏
踐
踝
踞
踟
踢
踩
踪
踮
踱
踴
踵
踹
蹂
蹄
蹇
蹈
蹉
蹊
蹋
蹑
蹒
蹙
蹟
蹣
蹤
蹦
蹩
蹬
蹭
蹲
蹴
蹶
蹺
蹼
蹿
躁
躇
躉
躊
躋
躍
躏
躪
身
躬
躯
躲
躺
軀
車
軋
軌
軍
軒
軟
転
軸
軼
軽
軾
較
載
輒
輓
輔
輕
輛
輝
輟
輩
輪
輯
輸
輻
輾
輿
轄
轅
轆
轉
轍
轎
轟
车
轧
轨
轩
转
轭
轮
软
轰
轲
轴
轶
轻
轼
载
轿
较
辄
辅
辆
辇
辈
辉
辊
辍
辐
辑
输
辕
辖
辗
辘
辙
辛
辜
辞
辟
辣
辦
辨
辩
辫
辭
辮
辯
辰
辱
農
边
辺
辻
込
辽
达
迁
迂
迄
迅
过
迈
迎
运
近
返
还
这
进
远
违
连
迟
迢
迤
迥
迦
迩
迪
迫
迭
述
迴
迷
迸
迹
迺
追
退
送
适
逃
逅
逆
选
逊
逍
透
逐
递
途
逕
逗
這
通
逛
逝
逞
速
造
逢
連
逮
週
進
逵
逶
逸
逻
逼
逾
遁
遂
遅
遇
遊
運
遍
過
遏
遐
遑
遒
道
達
違
遗
遙
遛
遜
遞
遠
遢
遣
遥
遨
適
遭
遮
遲
遴
遵
遶
遷
選
遺
遼
遽
避
邀
邁
邂
邃
還
邇
邈
邊
邋
邏
邑
邓
邕
邛
邝
邢
那
邦
邨
邪
邬
邮
邯
邰
邱
邳
邵
邸
邹
邺
邻
郁
郅
郊
郎
郑
郜
郝
郡
郢
郤
郦
郧
部
郫
郭
郴
郵
郷
郸
都
鄂
鄉
鄒
鄔
鄙
鄞
鄢
鄧
鄭
鄰
鄱
鄲
鄺
酉
酊
酋
酌
配
酐
酒
酗
酚
酝
酢
酣
酥
酩
酪
酬
酮
酯
酰
酱
酵
酶
酷
酸
酿
醃
醇
醉
醋
醍
醐
醒
醚
醛
醜
醞
醣
醪
醫
醬
醮
醯
醴
醺
釀
釁
采
釉
释
釋
里
重
野
量
釐
金
釗
釘
釜
針
釣
釦
釧
釵
鈀
鈉
鈍
鈎
鈔
鈕
鈞
鈣
鈦
鈪
鈴
鈺
鈾
鉀
鉄
鉅
鉉
鉑
鉗
鉚
鉛
鉤
鉴
鉻
銀
銃
銅
銑
銓
銖
銘
銜
銬
銭
銮
銳
銷
銹
鋁
鋅
鋒
鋤
鋪
鋰
鋸
鋼
錄
錐
錘
錚
錠
錢
錦
錨
錫
錮
錯
録
錳
錶
鍊
鍋
鍍
鍛
鍥
鍰
鍵
鍺
鍾
鎂
鎊
鎌
鎏
鎔
鎖
鎗
鎚
鎧
鎬
鎮
鎳
鏈
鏖
鏗
鏘
鏞
鏟
鏡
鏢
鏤
鏽
鐘
鐮
鐲
鐳
鐵
鐸
鐺
鑄
鑊
鑑
鑒
鑣
鑫
鑰
鑲
鑼
鑽
鑾
鑿
针
钉
钊
钎
钏
钒
钓
钗
钙
钛
钜
钝
钞
钟
钠
钡
钢
钣
钤
钥
钦
钧
钨
钩
钮
钯
钰
钱
钳
钴
钵
钺
钻
钼
钾
钿
铀
铁
铂
铃
铄
铅
铆
铉
铎
铐
铛
铜
铝
铠
铡
铢
铣
铤
铨
铩
铬
铭
铮
铰
铲
铵
银
铸
铺
链
铿
销
锁
锂
锄
锅
锆
锈
锉
锋
锌
锏
锐
锑
错
锚
锟
锡
锢
锣
锤
锥
锦
锭
键
锯
锰
锲
锵
锹
锺
锻
镀
镁
镂
镇
镉
镌
镍
镐
镑
镕
镖
镗
镛
镜
镣
镭
镯
镰
镳
镶
長
长
門
閃
閉
開
閎
閏
閑
閒
間
閔
閘
閡
関
閣
閥
閨
閩
閱
閲
閹
閻
閾
闆
闇
闊
闌
闍
闔
闕
闖
闘
關
闡
闢
门
闪
闫
闭
问
闯
闰
闲
间
闵
闷
闸
闹
闺
闻
闽
闾
阀
阁
阂
阅
阆
阇
阈
阉
阎
阐
阑
阔
阕
阖
阙
阚
阜
队
阡
阪
阮
阱
防
阳
阴
阵
阶
阻
阿
陀
陂
附
际
陆
陇
陈
陋
陌
降
限
陕
陛
陝
陞
陟
陡
院
陣
除
陨
险
陪
陰
陲
陳
陵
陶
陷
陸
険
陽
隅
隆
隈
隊
隋
隍
階
随
隐
隔
隕
隘
隙
際
障
隠
隣
隧
隨
險
隱
隴
隶
隸
隻
隼
隽
难
雀
雁
雄
雅
集
雇
雉
雋
雌
雍
雎
雏
雑
雒
雕
雖
雙
雛
雜
雞
離
難
雨
雪
雯
雰
雲
雳
零
雷
雹
電
雾
需
霁
霄
霆
震
霈
霉
霊
霍
霎
霏
霑
霓
霖
霜
霞
霧
霭
霰
露
霸
霹
霽
霾
靂
靄
靈
青
靓
靖
静
靚
靛
靜
非
靠
靡
面
靥
靦
革
靳
靴
靶
靼
鞅
鞋
鞍
鞏
鞑
鞘
鞠
鞣
鞦
鞭
韆
韋
韌
韓
韜
韦
韧
韩
韬
韭
音
韵
韶
韻
響
頁
頂
頃
項
順
須
頌
預
頑
頒
頓
頗
領
頜
頡
頤
頫
頭
頰
頷
頸
頹
頻
頼
顆
題
額
顎
顏
顔
願
顛
類
顧
顫
顯
顱
顴
页
顶
顷
项
顺
须
顼
顽
顾
顿
颁
颂
预
颅
领
颇
颈
颉
颊
颌
颍
颐
频
颓
颔
颖
颗
题
颚
颛
颜
额
颞
颠
颡
颢
颤
颦
颧
風
颯
颱
颳
颶
颼
飄
飆
风
飒
飓
飕
飘
飙
飚
飛
飞
食
飢
飨
飩
飪
飯
飲
飼
飽
飾
餃
餅
餉
養
餌
餐
餒
餓
餘
餚
餛
餞
餡
館
餮
餵
餾
饅
饈
饋
饌
饍
饑
饒
饕
饗
饞
饥
饨
饪
饬
饭
饮
饯
饰
饱
饲
饴
饵
饶
饷
饺
饼
饽
饿
馀
馁
馄
馅
馆
馈
馋
馍
馏
馒
馔
首
馗
香
馥
馨
馬
馭
馮
馳
馴
駁
駄
駅
駆
駐
駒
駕
駛
駝
駭
駱
駿
騁
騎
騏
験
騙
騨
騰
騷
驀
驅
驊
驍
驒
驕
驗
驚
驛
驟
驢
驥
马
驭
驮
驯
驰
驱
驳
驴
驶
驷
驸
驹
驻
驼
驾
驿
骁
骂
骄
骅
骆
骇
骈
骊
骋
验
骏
骐
骑
骗
骚
骛
骜
骞
骠
骡
骤
骥
骧
骨
骯
骰
骶
骷
骸
骼
髂
髅
髋
髏
髒
髓
體
髖
高
髦
髪
髮
髯
髻
鬃
鬆
鬍
鬓
鬚
鬟
鬢
鬣
鬥
鬧
鬱
鬼
魁
魂
魄
魅
魇
魍
魏
魔
魘
魚
魯
魷
鮑
鮨
鮪
鮭
鮮
鯉
鯊
鯖
鯛
鯨
鯰
鯽
鰍
鰓
鰭
鰲
鰻
鰾
鱈
鱉
鱔
鱗
鱷
鱸
鱼
鱿
鲁
鲈
鲍
鲑
鲛
鲜
鲟
鲢
鲤
鲨
鲫
鲱
鲲
鲶
鲷
鲸
鳃
鳄
鳅
鳌
鳍
鳕
鳖
鳗
鳝
鳞
鳥
鳩
鳳
鳴
鳶
鴉
鴕
鴛
鴦
鴨
鴻
鴿
鵑
鵜
鵝
鵡
鵬
鵰
鵲
鶘
鶩
鶯
鶴
鷗
鷲
鷹
鷺
鸚
鸞
鸟
鸠
鸡
鸢
鸣
鸥
鸦
鸨
鸪
鸭
鸯
鸳
鸵
鸽
鸾
鸿
鹂
鹃
鹄
鹅
鹈
鹉
鹊
鹌
鹏
鹑
鹕
鹘
鹜
鹞
鹤
鹦
鹧
鹫
鹭
鹰
鹳
鹵
鹹
鹼
鹽
鹿
麂
麋
麒
麓
麗
麝
麟
麥
麦
麩
麴
麵
麸
麺
麻
麼
麽
麾
黃
黄
黍
黎
黏
黑
黒
黔
默
黛
黜
黝
點
黠
黨
黯
黴
鼋
鼎
鼐
鼓
鼠
鼬
鼹
鼻
鼾
齁
齊
齋
齐
齒
齡
齢
齣
齦
齿
龄
龅
龈
龊
龋
龌
龍
龐
龔
龕
龙
龚
龛
龜
龟
︰
︱
︶
︿
﹁
﹂
﹍
﹏
﹐
﹑
﹒
﹔
﹕
﹖
﹗
﹙
﹚
﹝
﹞
﹡
﹣
！
＂
＃
＄
％
＆
＇
（
）
＊
＋
，
－
．
／
０
１
２
３
４
５
６
７
８
９
：
；
＜
＝
＞
？
＠
［
＼
］
＾
＿
｀
ａ
ｂ
ｃ
ｄ
ｅ
ｆ
ｇ
ｈ
ｉ
ｊ
ｋ
ｌ
ｍ
ｎ
ｏ
ｐ
ｑ
ｒ
ｓ
ｔ
ｕ
ｖ
ｗ
ｘ
ｙ
ｚ
｛
｜
｝
～
｡
｢
｣
､
･
ｯ
ｰ
ｲ
ｸ
ｼ
ｽ
ﾄ
ﾉ
ﾌ
ﾗ
ﾙ
ﾝ
ﾞ
ﾟ
￣
￥
👍
🔥
😂
😎
...
yam
10
2017
12
11
2016
20
30
15
06
lofter
2015
by
16
14
18
13
24
17
2014
21
22
19
25
23
com
100
00
05
2013
03
09
08
28
50
01
04
27
02
2012
26
07
29
2011
40
2010
2009
app
www
the
31
2008
60
http
200
qq
80
google
pixnet
90
cookies
tripadvisor
500
35
facebook
2007
2000
70
of
45
300
iphone
32
1000
2006
48
ip
36
in
38
3d
55
ctrip
33
to
34
400
id
2005
it
37
windows
llc
top
99
42
39
000
led
at
41
51
52
46
49
43
53
44
android
58
and
59
2004
56
vr
5000
2003
47
blogthis
twitter
54
150
ok
2018
57
75
cn
no
ios
800
on
te
3000
65
2001
360
95
ig
lv
120
pc
てす
──
600
85
2002
88
html
ncc
wifi
email
64
blog
is
mail
online
dvd
studio
line
vip
72
98
for
usb
net
cp
1999
asia
4g
diy
new
3c
ta
66
language
vs
apple
tw
86
web
ipad
62
you
101
68
ps
de
bt
pony
atm
1998
67
ceo
go
av
pro
cafe
96
pinterest
97
63
pixstyleme3c
more
said
1997
mp3
700
nba
jun
92
tv
1995
pm
61
76
nbsp
250
linux
cd
110
hd
78
77
6000
am
94
69
180
gdp
my
105
81
abc
89
flash
79
one
93
1990
1996
gps
web885
106
2020
91
4000
1500
xd
boss
isbn
1994
org
me
love
0fork
73
3g
71
82
hotel
130
1970
pk
83
87
140
ie
74
seo
cpu
p2p
84
may
sun
tue
internet
cc
posted
youtube
ii
abs
nt
pdf
yahoo
ago
1980
news
mac
104
java
1992
spa
hk
all
plus
la
1993
west
160
air
から
1989
logo
htc
php
https
fi
momo
sat
ebd
suv
wi
day
apk
mv
galaxy
wiki
or
brake
1200
する
this
1991
mon
❤2017
po
javascript
life
home
june
system
900
pp
1988
world
fb
4k
br
ic
ai
leonardo
safari
live
free
xx
wed
win7
kiehl
lg
o2o
us
235
1949
mm
しい
vfm
kanye
jr
123
rss
thu
fri
350
103
comments
name
max
1987
8000
uber
wordpress
office
1986
1985
107
bd
win10
gmail
bb
dior
up
cad
dr
して
read
をお
url
1984
pvc
paypal
show
policy
with
txt
102
dna
from
post
mini
ar
taiwan
john
privacy
agoda
word
1982
265
cookie
netscape
108
house
share
note
ibm
code
hello
nike
sim
survey
1979
1950
wikia
5g
cbc
1983
campaign
store
2500
os
170
api
365
excel
～～
university
163
には
518
pierre
ipo
0020
897
hotels
のお
125
years
6606
high
time
bug
xp
talk2yam
yamservice
10000
coco
sony
1978
microsoft
david
people
1960
instagram
intel
その
iso
1981
115
xxx
man
co
ltxsw
baby
220
1945
7000
tag
450
msn
oppo
control
st
chrome
be
lol
した
240
lady
4600
4s
corporation
168
herme
ｃｐ
978
ui
ppt
admin
three
します
bbc
re
128
ca
hp
tpp
××
root
adobe
park
114
et
oled
city
china
20000
view
global
your
hong
out
ng
ebay
menu
ubuntu
rom
open
ktv
do
server
if
english
1600
step1
kong
club
135
july
inc
1976
mr
hi
touch
michael
lcd
phone
james
step2
1300
ios9
dc
samsung
111
280
pokemon
css
いいえ
s8
atom
play
bmw
sa
etf
ctrl
♥yoyo♥
2025
adidas
amazon
1958
visa
1800
connectivity
firefox
109
118
hr
so
style
mark
pop
ol
skip
1975
as
190
mba
le
1900
cafe2017
lte
super
113
129
amd
like
are
we
paul
data
international
longchamp
ssd
good
reply
↓↓↓
apr
star
source
136
js
112
get
force
photo
126
link
bbs
1972
goods
python
119
game
blue
520
page
itunes
1955
260
1968
gt
gif
618
group
くたさい
about
bar
ganji
music
lee
not
1977
1971
1973
an
faq
comment
days
116
1974
1969
v1
player
1956
xbox
sql
fm
f1
139
210
melody
1957
550
17life
199
1966
xml
market
999
what
gl
tips
book
mysql
can
1959
230
wonderland
watch
10℃
9000
mar
mobile
1946
1962
article
part
▲top
party
って
1967
1964
1948
この
dj
010
main
225
1965
art
320
ad
134
020
117
pm2
japan
228
ts
1963
der
sm
2019
ct
1937
homemesh
search
macbook
service
type
った
750
best
goris
lock
cf
3m
big
ftp
carol
１０
1961
happy
sd
122
anti
pe
cnn
iii
1920
138
1940
esp
jan
tags
august
vol
154
design
ac
press
jordan
ppp
that
key
check
1080p
power
1952
vivi
he
133
121
jpg
201
175
3500
1947
nb
しています
1954
usd
master
001
model
al
1953
ram
goo
ても
127
1930
red
rpg
item
270
project
hot
td
blogabstract
650
gr2
black
electronic
nfc
year
asus
また
html5
cindy
m3
132
esc
booking
fed
tvb
mit
165
chan
192
distribution
next
になる
peter
bios
steam
cm
1941
にも
pk10
dec
nasa
icecat
00z
b1
will
li
se
oct
jp
cio
smart
h5
curve
vpn
utc
12345678910
rmvb
chanel
a4
miss
media
who
she
girl
5s
124
vera
class
vivo
king
national
ab
1951
5cm
888
145
ipod
ap
1100
5mm
211
ms
2756
mp4
msci
131
mg
index
380
158
apec
photoshop
opec
￥799
ては
2g
○○
￥2899
1938
kitty
content
step3
win8
155
vc
1400
iphone7
robert
tcl
137
beauty
en
dollars
step
pay
yy
a1
1939
188
download
1944
sep
exe
ph
います
school
gb
center
pr
street
uv
winrar
1942
1936
480
gpu
ettoday
fu
tom
149
b2b
144
rose
arm
mb
nvidia
step4
mvp
00㎡
york
156
how
cpi
591
2765
gov
kg
joe
mandy
pa
copyright
fashion
1935
don
ecu
erp
wap
have
talk
ch
video
1943
cs
san
iot
look
october
trump
box
141
first
april
185
angel
protected
aa
151
162
x1
m2
size
143
min
ofo
fun
gomaji
ex
hdmi
food
dns
march
chris
kevin
ag
ems
6s
720p
off
asp
team
fandom
ed
299
▌♥
info
されています
sina
4066
161
330
399
315
dll
rights
ltd
idc
jul
3kg
1927
142
ma
surface
～～～
304
mall
eps
146
green
map
space
donald
v2
sodu
1931
148
1700
まて
310
reserved
htm
2d
178
mod
152
ti
doc
1933
icp
055
wang
shopping
aug
now
wam
b2
からお
236
1928
266
f2
153
mix
bwl
core
tea
5℃
hktvmall
nhk
list
301
feb
4m
inn
ての
nov
159
12345
daniel
pass
coffee
202
ssl
airbnb
fbi
woshipm
skype
ea
cg
sp
yes
edge
alt
007
fpga
iso9001
さい
image
lin
icon
american
1932
set
says
blogger
なと
256
147
nokia
claire
november
lohas
db
january
win
166
road
ptt
198
anna
pchome
はい
udn
ef
420
2030
g20
white
かかります
1929
308
garden
eleven
di
chen
309b
777
172
young
cosplay
ちてない
4500
bat
kindle
npc
steve
etc
call
xperia
ces
travel
sk
s7
1934
みいたたけます
183
edu
file
cho
qr
186
eric
1914
rends
mastercard
kb
290
vista
jack
2400
169
pos
1912
taipei
しく
205
beta
232
express
255
body
aphojoy
user
december
meiki
tweet
richard
iphone6
ちてすか
views
321
pd
times
level
10g
point
5l
208
koreanmall
george
q2
206
wma
tcp
スタッフ
full
mlb
tm
run
179
911
smith
business
1919
color
222
171
moon
4399
update
pcb
shop
499
157
little
なし
end
van
dsp
easy
660
history
oh
oem
let
was
review
182
203
uc
title
united
233
2021
doi
trivago
overdope
sbs
grand
special
573032185
imf
216
wx17house
audi
london
william
science
beach
cfa
amp
ps4
880
crm
ferragamo
bell
make
195
under
zh
photos
2300
via
176
da
company
i7
thomas
370
ufo
i5
plc
ben
back
research
8g
173
mike
september
189
vps
february
167
pantos
wp
lisa
1921
★★
jquery
night
long
offer
1911
ray
fks
wto
せます
over
164
340
1924
blogtitle
loftpermalink
187
martin
test
ling
km
15000
fda
v3
ｗedding
かある
outlet
family
をこ
story
salvatore
204
swift
215
room
している
oracle
1925
sam
b2c
week
pi
rock
cctv
after
chinese
powered
x2
1918
canon
only
181
say
184
221
sky
made
top100
just
1926
pmi
802
234
gap
177
les
174
▲topoct
ball
vogue
vi
ing
ofweek
cos
▲topmay
として
last
real
eva
a3
nas
▲topapr
his
212
cat
nata
vive
health
⋯⋯
drive
sir
▲topmar
du
cup
alex
msg
tour
しました
3ce
193
ebooks
r8
block
318
2200
nice
pvp
207
months
1905
rewards
1917
0800
micro
850
gg
blogfp
op
1922
daily
m1
264
true
ml
anthony
196
253
state
218
より
gear
ge
see
1923
ss
heart
down
el
png
2100
610
rakuten
whatsapp
bay
dream
add
680
311
pad
gucci
mpv
island
▲topjun
223
jason
214
chicago
しの
io
sogo
be2
990
cloud
vcd
2～3
but
docker
rfid
ul
hit
ford
580
１１
a2
sdk
reading
edited
cmos
238
siri
light
bloomberg
pizza
jimmy
college
node
journal
ba
18k
245
２０
magic
191
jump
288
tt
asr
3200
step5
network
mc
いします
1234
pixstyleme
273
2800
money
★★★★★
1280
１２
430
bl
みの
act
tokyo
emba
saas
tcs
summer
ko
390
premium
netflix
uk
mt
right
frank
two
209
える
021
hold
nexus
dd
てお
tila
zero
820
ce
resort
charles
old
p10
5d
report
bus
vans
lt
pv
links
rebecca
azure
きな
limited
bit
4gb
1910
moto
213
1913
var
eos
なとの
226
blogspot
された
699
e3
dos
dm
fc
boy
960
er
219
194
station
835
files
zara
hdr
top10
nature
950
magazine
s6
marriott
avira
case
tab
tony
oculus
im
jean
saint
cry
307
rosie
ice
のある
pet
2600
plurk
▲topdec
00kg
▲topnov
720
tim
log
ips
great
ikea
malaysia
unix
3600
12000
akb48
404
oa
xuehai
275
さん
980
ho
text
560
bob
227
8891
scp
avi
2022
mi
wu
museum
qvod
apache
lake
jcb
▲topaug
★★★
ni
hill
302
ne
weibo
490
ruby
4d
▲topjul
iv
github
306
mate
312
andrew
のハイト
t1
rf
ed2k
way
final
りの
ns
5a
705
197
sweet
bytes
▲topjan
231
100g
topapp
229
helpapp
rs
low
14k
g4g
care
630
ldquo
あり
leave
rm
edition
▲topsep
gold
224
explorer
toyota
category
select
visual
restaurant
posts
s1
もっと
angelababy
123456
217
sports
s3
mbc
1915
してくたさい
shell
x86
candy
kbs
face
xl
470
4a
swissinfo
v8
▲topfeb
dram
3a
sport
q1
ios10
public
int
card
ep
au
rt
1080
bill
kim
３０
460
wan
x3
298
0t
scott
239
e5
h7n9
worldcat
brown
249
410
paris
polo
925
599
capital
bank
cv
1g
adc
2m
digital
hotmail
268
870
bbq
quot
before
wali
mcu
2k
2b
という
costco
316
north
333
switch
philips
management
panasonic
alice
css3
vision
alpha
lz
にお
mode
gre
1916
pci
237
1～2
について
work
war
coach
ah
mary
huang
a8
pt
follow
1895
a5
ghost
south
girls
action
villa
git
r11
table
games
error
here
qa
gmp
vmalife
yu
wedding
demo
dragon
530
soho
social
bye
river
orz
acer
325
261
del
440
ups
305
value
macd
yougou
661
ll
continue
script
paper
263
319
shift
258
x5
fox
243
car
aaa
loading
kuso
799
si
sns
イカせるテンマ
ヒンクテンマ3
rmb
vdc
forest
central
prime
help
ultra
241
square
688
のないフロクに
c1
start
510
cdn
cba
stephen
m8
100km
opera
vsa
com™
251
なのて
count
t2
2700
hop
vsc
tree
816
285
alphago
v4
1909
simon
fluke62max
zip
スホンサー
louis
cr
bas
bc
hadoop
1906
0755
hola
place
centre
5v
d3
252
281
540
0l
exchange
262
series
eb
q3
take
259
1888
client
east
cache
event
vincent
きを
sui
855
adchoice
246
ga
apps
sea
248
cisco
kymco
dha
minkoff
royal
p1
への
annie
269
collection
kpi
playstation
257
になります
866
bh
queen
505
radio
1904
andy
armani
manager
iherb
spring
raid
johnson
1908
volvo
hall
v6
our
taylor
bi
242
kate
bo
water
technology
サイトは
277
hpv
303
gtx
hip
rdquo
jayz
stone
namespace
620
des
enter
d2
との
a9
jj
ky
access
movie
リストに
tower
ます
ua
tel
prefix
1907
1901
ott
～10
baidu
member
bigbang
nownews
247
eba
ける
v5
spark
there
god
hiv
burberry
day2
◆◆
jeff
related
film
edit
joseph
283
cx
32gb
order
g9
30000
s5
かあります
thread
xr
buy
sh
005
land
spotify
mx
276
×email
sf
why
244
7headlines
nego
sunny
dom
exo
401
666
positioning
fit
rgb
278
kiss
alexa
adam
lp
みリストを
mp
amy
np
002
institute
271
2345
590
sidebar
１５
imax
site
season
323
gogoro
a7
pu
lily
fire
twd600
いて
30ml
information
close
friday
yi
nick
てすか
6500
cbd
economy
254
かお
267
tinker
double
375
8gb
voice
oops
channel
today
985
raw
xyz
jim
edm
7500
supreme
814
ds
dropbox
books
272
100ml
sex
309
t3
1903
810
feel
5500
により
s2
mo
men
ka
amoled
div
port
howard
ken
dnf
adsense
ide
buff
thunder
has
auto
pin
tee
てした
295
number
object
psp
cool
udnbkk
16gb
miui
most
r2
1880
±0
428
s4
law
version
n1
sgs
docomo
henry
fc2
286
0mm
linkedin
wii
ucbug
sputniknews
legalminer
2gb
q10
oo
b6
come
cheese
ming
maker
nikon
ppi
kelly
jchere
てきます
ted
md
003
fgo
tech
dan
soc
hair
earth
640
521
img
acca
suite
outlook
398
279
101vip
358
282
64gb
3800
345
airport
284
jones
lab
co2
town
piece
no1
vmware
24h
focus
reader
tb
false
1898
know
lan
838
f4
motel
stop
na
flickr
netcomponents
pose
williams
local
いお
274
5m
gsm
con
1902
friends
cell
317
780
cream
012
facebooktwitterpinterestgoogle
sso
324
shtml
song
swiss
lumia
xdd
string
tiffany
522
marc
られた
insee
russell
sc
dell
ｏｋ
camera
289
classic
287
stay
g1
mtv
512
qe
sata
ryan
d1
50ml
cms
su
292
3300
editor
296
security
sunday
association
acg
sofascore
とは
mkv
jonathan
gary
build
labels
tesla
moba
qi
gohappy
general
ajax
1024
サイト
society
wps
fedora
mozilla
328
usa
urn
grace
1250
elle
570
price
uhz
eq
states
push
session
balance
wow
506
when
34e
wong
library
prada
running
313
ck
date
q4
mk
388
die
secret
rq
dota
buffet
は１ヶ
e6
pan
368
ha
2a
alan
day3
eye
f3
france
keep
adi
rna
tvbs
solo
nova
support
base
copy
iis
fps
hero
hgih
profile
fish
mu
ssh
entertainment
chang
click
cake
pre
kic
pixel
product
6a
dear
es
yumi
audio
echo
bin
where
329
find
sap
isis
nand
band
a6
525
never
festival
50cm
555
guide
314
zenfone
335
gd
forum
jessica
strong
alexander
software
allen
program
360°
else
lohasthree
することかてきます
please
rc
bim
50000
eclipse
355
brian
3ds
061
361
485
engine
plaza
cia
ngo
westbrook
shi
tbs
50mm
sci
291
reuters
contextlink
af
bridge
very
1890
cambridge
15g
790
frm
award
butler
meta
america
ps3
puma
pmid
lc
670
kitchen
オーフン5
きなしソフトサーヒス
そして
day1
future
★★★★
pm1
fans
1001
christian
bot
kids
trackback
c3
display
n2
1896
idea
さんも
airmail
pwm
けます
028
369
852
awards
schemas
354
asics
wikipedia
font
c2
293
っている
contact
pepper
スキル
339
294
730
みてす
q5
rain
wei
swatch
わせ
331
popular
p2
501
trc
1899
justin
honda
ping
messenger
v9
543
unity
appqq
はすへて
025
leo
uniqlo
502
her
jane
memory
moneydj
human
12306
していると
coc
miacare
tmt
vim
kk
fan
target
use
too
338
435
2050
867
737
fast
services
omega
energy
pinkoi
1a
jackson
374
366
そんな
p9
rd
1111
zone
385
690
dl
isofix
cpa
m4
322
kimi
めて
davis
lulu
050
weeks
qs
920
ae
～5
eia
405
korea
jpeg
boost
small
1860
eur
297
425
valley
simple
rn
k2
されます
non
patrick
しているから
feed
5757
30g
process
well
qqmei
they
aws
lu
pink
または
board
wine
unicode
r1
359
いを
cool1
される
isp
standard
45㎡2
402
matt
326
googlemsn
pixnetfacebookyahoo
x7
886
メーカー
sao
9678
403
xddd
shirt
6l
3mm
givenchy
ya
bang
monday
crystal
ロクイン
336
head
890
ubuntuforumwikilinuxpastechat
cnc
7866
ipv6
null
1897
yang
imsean
tiger
352
dji
327
ji
maria
foundation
3100
1m
601
active
3p
sr
349
emma
living
415
353
1889
341
709
457
sas
x6
pptv
x4
han
sophie
337
fifa
other
sale
inwedding
てきちゃいます
bad
nana
nbc
してみてくたさいね
なとはお
note7
single
せからこ
してくたさい♪この
しにはとんとんワークケートを
するとあなたにもっとマッチした
ならワークケートへ
もみつかっちゃうかも
ワークケートの
window
union
age
382
１４
コメント
domain
neo
5k
f5
steven
powerpoint
tft
self
g2
ft
zol
mwc
381
343
もう
nbapop
408
てある
eds
ace
previous
author
tomtom
il
hu
financial
☆☆☆
っています
bp
5t
chi
1gb
fairmont
cross
008
gay
h2
function
356
also
1b
625
1894
3～5
i3
334
avenue
による
message
navigation
50g
fintech
h6
8cm
credit
xxxx
form
huawei
plan
json
sbl
machine
921
392
wish
windows7
edward
development
washington
lo
818
planet
ieee
gpa
camp
ann
gm
connect
wall
chicken
soul
2mm
fa
009
hitachi
gui
harry
e1
disney
wind
386
frigidaire
liu
hsu
332
basic
von
ev
いた
てきる
スホンサーサイト
learning
expedia
archives
change
santa
cut
ins
6gb
turbo
brand
cf1
508
004
return
747
h1
128gb
3t
application
しており
emc
rx
384
quick
412
15058
wilson
wing
chapter
beyond
zoom
e2
trip
sb
rcep
342
aspx
ci
080
gc
gnu
める
advanced
dance
dv
367
8591
am09
shadow
battle
346
emily
host
ff
techorz
sars
nc
4200
798
cma
455
amana
426
ir
00㎡1
710
ˋ▽ˊ
dcs
iq
l1
maggie
588
830
1tb
articles
create
database
fantasy
dlc
dean
hard
path
gaming
victoria
maps
cb
overchicstoretvhome
systems
416
p3
sarah
760
407
486
x9
install
second
626
860
ec
768
metro
chocolate
～4
skin
395
mountain
inparadise
6m
7x24
ib
4800
eeworld
creative
g5
g3
357
parker
ecfa
village
からの
18000
sylvia
サーヒス
hbl
ie6
383
389
ver
sound
bbe
ads
022
gundam
351
thinkpad
006
scrum
match
mems
glass
lamigo
span
job
jay
wade
kde
498
ocean
tvg
junior
think
cover
↓↓
msi
413
458
406
711
801
soft
z2
456
1840
mobil
mind
427
nginx
めた
6221
371
91tv
comhd
crv3000
1868
397
deep
lost
field
gallery
rate
spf
redis
traction
930
icloud
011
なら
fe
jose
372
into
sohu
fx
899
379
kicstart2
すく
ra
２４
500g
pacific
xa
natural
carlo
1850
cto
gigi
516
pen
ob
matlab
13913459
mango
sense
c5
oxford
walker
jennifer
course
701
lucky
075
ivy
なお
sotheby
side
joy
364
r9
511
country
wear
393
seven
study
411
348
lonzo
8k
evolution
gs
kd
arduino
344
b12
arpg
cook
dark
five
とても
sign
362
something
20mm
387
fresh
tf
1870
422
cam
education
394
dyson
stage
want
epson
pack
あります
テリヘル
wd
left
golden
mhz
discovery
loft
speed
～1
1mdb
sorry
welcome
wave
gaga
teddy
トラックハック
せよ
611
378
rp
rar
840
holiday
373
074
gartner
gi
6p
kit
488
b3
eco
20g
sean
autocad
nu
f16
write
029
m5
images
atp
fsm
504
1350
ve
52kb
414
unit
lim
ru
1v
published
angela
16g
analytics
ak
gmt
again
ios11
445
かこさいます
waze
いてす
9985
framework
iptv
delete
52sykb
cl
wwdc
027
30cm
1389
brandt
tc
vetements
anne
monte
modern
official
もちろん
５０
etnews
421
863
444
l2
mount
ccd
たと
archive
morning
tan
ddos
e7
day4
gis
453
its
495
factory
bruce
pg
ってくたさい
guest
cdma
536
n3
しかし
3～4
mega
eyes
ro
１３
women
dac
church
singapore
6991
starbucks
zen
tina
20℃
1893
503
465
request
qt
1886
347
363
q7
diary
409
468
cst
canada
agent
va
sg
g6
bing
charlie
１６
8mm
nb40
thai
ln284ct
bonnie
originals
418
∟∣
children
ntd
yesstyle
hmv
d5
2cm
arts
sms
topios9
539
lifestyle
virtual
xz
muji
024
unt
faq1
1884
396
fly
64㎡
はしめまして
441
curry
のこ
release
073
ありな
500ml
5c
ios7
787
dog
lenovo
roger
013
cbs
vornado
100m
417
1867
9595
2900
oil
some
break
common
g7
twice
419
ella
nano
belle
にこ
jb
benz
451
save
kai
りは
rainer
448
adsl
guestname
tokichoi
county
rmk
391
address
vm
えて
openload
amg
urban
jobs
emi
beautiful
album
jerry
works
hostel
miller
376
boot
828
1885
433
432
francis
xi
c919
b5
evernote
vga
coupe
019
6g
れる
multi
em
hey
inside
than
740
leonnhurt
ict
れた
bird
notes
200mm
くの
result
442
iu
ee
438
smap
gopro
yin
pure
998
32g
けた
5kg
mama
bean
marketing
2l
bella
sync
xuite
515
discuz
cj
gmat
apt
jing
c4
rich
niusnews
bag
770
１８
culture
015
377
1020
area
616
details
gp
universal
silver
dit
はお
private
ddd
u11
kanshu
fung
dx
tai
475
023
3s
429
25000
ly
rick
usb3
banner
metal
dt
vdf
1871
karl
qualcomm
bear
1010
oldid
ian
jo
population
1882
mmorpg
603
ww
friend
exhibition
fpx
structure
kl
california
3400
orange
yoga
4l
canmake
honey
595
nikkie
dhl
publishing
20cm
513
e88
970
fishbase
丂
丄
丅
丆
丌
丏
丒
丗
丠
丣
丩
丬
丮
丯
丱
丳
丵
丷
乀
乁
乄
乆
乇
乊
乑
乕
乚
乛
乢
乣
乤
乥
乧
乨
乪
乫
乬
乭
乮
乯
乲
乴
乵
乶
乷
乸
乹
乺
乻
乼
乽
乿
亁
亃
亄
亅
亇
亊
亍
亐
亓
亖
亗
亝
亠
亣
亪
亯
亰
亱
亴
亶
亷
亸
亹
亻
亼
亽
亾
仂
仈
仉
仌
仐
仒
仚
仛
仜
仠
仡
仢
仦
仧
仩
仫
仭
仯
仱
仳
仴
仵
仸
仹
仺
仼
仾
伀
伂
伃
伄
伅
伆
伇
伈
伋
伌
伒
伓
伔
伖
伛
伜
伡
伣
伥
伧
伨
伩
伬
伭
伮
伱
伲
伳
伵
伷
伹
伻
伾
伿
佀
佁
佂
佄
佅
佉
佊
佋
佌
佒
佖
佡
佦
佧
佨
佪
佫
佭
佮
佱
佲
佴
佷
佸
佹
佺
佽
佾
侀
侁
侂
侅
侇
侉
侊
侌
侎
侐
侒
侓
侔
侕
侘
侙
侚
侜
侞
侟
侢
侤
侩
侪
侫
侭
侰
侱
侲
侳
侴
侸
侹
侺
侻
侼
侽
侾
俀
俁
俅
俆
俇
俈
俉
俋
俌
俍
俒
俓
俔
俕
俖
俙
俛
俜
俢
俣
俤
俥
俦
俧
俫
俰
俲
俴
俵
俶
俷
俹
俻
俼
俽
俿
倀
倁
倂
倃
倄
倅
倇
倈
倊
倎
倐
倓
倕
倗
倛
倝
倞
倠
倢
倣
倥
倧
倨
倮
倯
倰
倱
倲
倳
倴
倵
倷
倸
倹
倻
倽
倿
偀
偁
偂
偄
偅
偆
偊
偋
偍
偐
偑
偒
偓
偔
偖
偗
偘
偙
偛
偝
偞
偟
偠
偡
偢
偣
偤
偦
偧
偨
偩
偪
偫
偬
偭
偮
偯
偰
偱
偲
偳
偸
偹
偺
偼
偾
傁
傂
傃
傄
傆
傇
傈
傉
傊
傋
傌
傎
傏
傐
傒
傓
傔
傕
傖
傗
傛
傜
傝
傞
傟
傠
傡
傤
傦
傧
傪
傫
傮
傯
傰
傱
傴
傶
傸
傹
傺
傼
傽
傿
僀
僁
僂
僃
僄
僆
僇
僈
僉
僊
僋
僌
僎
僐
僒
僓
僔
僗
僘
僙
僛
僜
僝
僞
僟
僠
僡
僢
僣
僤
僦
僨
僩
僪
僫
僬
僯
僰
僲
僳
僴
僶
僷
僸
僺
僼
僽
僾
僿
儁
儃
儅
儇
儈
儊
儌
儍
儎
儏
儐
儑
儓
儔
儖
儗
儙
儚
儛
儜
儝
儞
儠
儢
儣
儤
儥
儦
儧
儨
儩
儫
儬
儭
儮
儯
儰
儱
儳
儴
儵
儶
儸
儹
儺
儻
儽
儾
兂
兊
兎
兏
兓
兕
兗
兘
兙
兛
兝
兞
兟
兠
兡
兣
兤
兦
兪
兯
兺
兾
兿
冁
冂
冃
冄
冋
冎
冐
冑
冓
冔
冖
冘
冚
冝
冞
冟
冡
冣
冦
冧
冩
冫
冭
冮
冱
冴
冸
冹
冺
冿
凁
凂
凃
凅
凊
凎
凐
凒
凓
凔
凕
凖
凗
凘
凙
凚
凞
凟
凢
凣
凥
凧
凨
凩
凫
凬
凮
凲
凴
凵
凷
凼
凾
刂
刄
刅
刉
刋
刌
刏
刐
刓
刔
刕
刖
刜
刞
刟
刡
刢
刣
刦
刧
刬
刭
刯
刱
刲
刳
刴
刵
刼
刾
刿
剀
剄
剅
剆
剈
剏
剒
剓
剕
剗
剘
剙
剚
剞
剟
剠
剡
剢
剦
剨
剫
剬
剭
剮
剰
剱
剳
剴
剶
剸
剹
剺
剻
剼
剾
劀
劁
劂
劄
劅
劆
劋
劌
劎
劐
劒
劓
劔
劕
劖
劗
劘
劙
劚
劜
劢
劤
劥
劦
劧
劬
劮
劯
劰
劶
劷
劸
劺
劻
劼
劽
勀
勂
勄
勅
勆
勈
勊
勌
勍
勎
勏
勑
勓
勔
勗
勚
勜
勠
勡
勣
勥
勦
勨
勩
勪
勫
勬
勭
勮
勯
勰
勱
勲
勴
勶
勷
勹
勼
勽
匁
匂
匃
匄
匇
匉
匊
匋
匌
匎
匏
匑
匒
匓
匔
匘
匚
匛
匜
匞
匟
匢
匤
匥
匦
匧
匨
匩
匫
匬
匭
匰
匲
匳
匴
匵
匶
匷
匸
匼
匽
卂
卄
卆
卋
卌
卐
卙
卛
卝
卣
卥
卨
卩
卪
卬
卭
卲
卶
卹
卺
卼
卽
卾
厀
厁
厃
厇
厈
厊
厍
厎
厏
厐
厑
厒
厓
厔
厖
厗
厙
厛
厜
厞
厠
厡
厣
厤
厧
厪
厫
厬
厯
厰
厱
厴
厵
厶
厷
厸
厹
厺
厼
厽
厾
叀
叄
叅
叆
叇
叏
叐
叒
叓
叕
叚
叜
叝
叞
叧
叴
叺
叾
叿
吀
吂
吅
吇
吔
吘
吙
吚
吜
吢
吣
吤
吥
吪
吰
吲
吷
吺
吿
呁
呄
呅
呇
呉
呌
呍
呏
呑
呒
呔
呖
呙
呚
呝
呞
呟
呠
呡
呣
呥
呧
呩
呪
呫
呬
呭
呮
呯
呰
呴
呶
呹
呺
呾
呿
咃
咅
咇
咈
咉
咊
咍
咑
咓
咜
咝
咞
咟
咠
咡
咢
咥
咮
咰
咴
咵
咶
咷
咹
咺
咼
咾
哃
哅
哊
哓
哕
哖
哘
哙
哚
哛
哜
哝
哞
哠
哢
哣
哤
哫
哬
哯
哰
哱
哳
哴
哵
哶
哷
哸
哹
哻
哾
哿
唀
唂
唃
唅
唈
唊
唋
唌
唍
唎
唒
唓
唕
唖
唗
唘
唙
唚
唛
唜
唝
唞
唟
唡
唢
唣
唥
唦
唨
唩
唪
唫
唭
唲
唴
唵
唶
唹
唺
唻
唼
唽
唿
啀
啁
啂
啅
啇
啈
啋
啌
啍
啎
啐
啑
啒
啔
啗
啘
啙
啚
啛
啝
啠
啢
啣
啨
啩
啭
啯
啳
啴
啹
啺
啽
啿
喁
喅
喈
喌
喍
喐
喑
喒
喓
喕
喖
喗
喛
喞
喠
喡
喢
喣
喤
喥
喦
喨
喩
喭
喯
喴
喸
喼
喾
喿
嗀
嗁
嗂
嗃
嗄
嗈
嗉
嗊
嗋
嗌
嗍
嗏
嗐
嗕
嗗
嗘
嗙
嗛
嗞
嗠
嗢
嗥
嗧
嗩
嗫
嗭
嗮
嗱
嗴
嗵
嗸
嗹
嗺
嗻
嗼
嗾
嗿
嘁
嘂
嘃
嘄
嘇
嘊
嘋
嘏
嘐
嘑
嘒
嘓
嘕
嘙
嘝
嘠
嘡
嘥
嘦
嘨
嘪
嘫
嘬
嘳
嘵
嘷
嘺
嘼
嘽
嘾
噀
噂
噃
噄
噅
噆
噇
噈
噉
噊
噋
噍
噏
噐
噑
噒
噕
噖
噘
噚
噛
噝
噞
噟
噡
噣
噥
噦
噧
噫
噭
噮
噯
噰
噲
噳
噵
噷
噺
噽
噾
噿
嚁
嚂
嚃
嚄
嚅
嚆
嚈
嚉
嚊
嚋
嚌
嚍
嚑
嚒
嚔
嚖
嚗
嚘
嚙
嚚
嚛
嚜
嚝
嚞
嚠
嚡
嚢
嚤
嚦
嚧
嚩
嚪
嚫
嚬
嚭
嚯
嚰
嚱
嚲
嚳
嚵
嚶
嚸
嚹
嚺
嚻
嚽
嚾
嚿
囀
囁
囃
囄
囅
囆
囇
囈
囋
囌
囎
囏
囐
囒
囓
囕
囖
囘
囙
囜
囥
囦
囨
囩
囬
囮
囯
囵
囶
囷
囸
囻
囼
圀
圁
圂
圅
圇
圉
圊
圌
圎
圐
圑
圔
圕
圗
圙
圚
圛
圝
圞
圠
圡
圢
圤
圥
圦
圪
圫
圬
圮
圯
圱
圲
圴
圵
圶
圷
圸
圹
圼
圽
圿
坁
坃
坄
坅
坆
坈
坉
坋
坌
坒
坓
坔
坕
坖
坘
坙
坜
坢
坣
坥
坧
坩
坫
坬
坭
坮
坰
坱
坲
坴
坶
坸
坹
坺
坻
坼
坽
坾
坿
垀
垁
垅
垆
垇
垈
垉
垊
垌
垍
垎
垏
垐
垑
垓
垔
垕
垖
垗
垘
垙
垜
垝
垞
垟
垡
垤
垥
垧
垨
垪
垬
垯
垰
垱
垲
垳
垴
垶
垷
垸
垹
垺
垻
垼
垽
垾
垿
埀
埁
埄
埅
埆
埇
埈
埉
埊
埌
埍
埏
埐
埑
埒
埓
埖
埘
埙
埚
埛
埜
埝
埞
埡
埢
埣
埥
埦
埧
埨
埩
埪
埫
埬
埭
埮
埯
埰
埱
埲
埳
埴
埶
埻
埽
埾
埿
堁
堄
堈
堉
堊
堋
堌
堍
堎
堏
堐
堒
堓
堔
堖
堗
堘
堚
堛
堜
堝
堞
堟
堠
堢
堣
堥
堦
堧
堨
堩
堫
堬
堭
堮
堲
堳
堶
堷
堸
堹
堻
堼
堽
堾
塀
塁
塂
塃
塄
塅
塆
塇
塈
塉
塋
塍
塎
塏
塐
塒
塓
塕
塖
塙
塛
塜
塝
塟
塠
塡
塣
塤
塥
塦
塧
塨
塪
塮
塯
塰
塱
塲
塳
塴
塶
塷
塸
塹
塺
塻
塼
塽
塿
墁
墂
墄
墆
墇
墈
墋
墌
墍
墎
墏
墐
墑
墔
墕
墖
墚
墛
墝
墠
墡
墢
墣
墤
墥
墦
墧
墪
墫
墬
墭
墯
墰
墱
墲
墴
墵
墶
墷
墸
墹
墺
墼
墽
墿
壀
壂
壃
壄
壈
壉
壋
壌
壍
壎
壏
壐
壒
壔
壖
壗
壙
壚
壛
壜
壝
壠
壡
壣
壥
壦
壧
壨
壪
壭
壱
壴
壵
壷
壸
壻
壼
壾
壿
夀
夁
夂
夃
夅
夆
夈
夊
夋
夌
夎
夐
夑
夒
夓
夗
夘
夛
夝
夞
夡
夣
夤
夦
夨
夬
夰
夲
夳
夵
夶
夻
夼
夽
夿
奀
奁
奃
奅
奆
奊
奌
奍
奒
奓
奙
奛
奜
奝
奞
奟
奡
奣
奤
奦
奨
奩
奫
奭
奯
奰
奱
奲
奵
奷
奺
奻
奼
奾
奿
妀
妁
妅
妉
妋
妌
妎
妏
妐
妑
妔
妕
妗
妚
妛
妜
妟
妠
妡
妢
妦
妧
妫
妬
妭
妯
妰
妱
妴
妵
妶
妷
妸
妺
妼
妽
妿
姀
姁
姂
姃
姄
姅
姇
姈
姌
姎
姏
姕
姖
姘
姙
姛
姞
姟
姠
姡
姢
姤
姧
姩
姭
姮
姯
姰
姱
姲
姳
姴
姵
姶
姷
姸
姺
姼
姽
姾
娀
娂
娈
娊
娋
娌
娍
娎
娏
娐
娒
娔
娕
娖
娗
娙
娚
娝
娞
娡
娢
娤
娦
娧
娨
娪
娫
娬
娭
娮
娯
娰
娳
娵
娷
娸
娹
娺
娻
娽
娾
娿
婂
婃
婄
婅
婇
婈
婋
婌
婍
婎
婏
婐
婑
婒
婓
婔
婖
婗
婘
婙
婛
婜
婝
婞
婟
婠
婡
婣
婤
婥
婨
婩
婫
婬
婮
婯
婰
婱
婲
婳
婸
婹
婻
婼
婽
婾
媀
媁
媂
媃
媄
媅
媆
媇
媈
媉
媊
媋
媌
媍
媎
媏
媐
媑
媓
媔
媕
媖
媗
媘
媙
媜
媝
媟
媠
媡
媢
媣
媤
媥
媦
媨
媩
媪
媫
媬
媭
媮
媯
媰
媱
媴
媵
媶
媷
媸
媹
媺
媻
媼
媿
嫀
嫃
嫄
嫅
嫆
嫇
嫈
嫊
嫋
嫍
嫎
嫏
嫐
嫒
嫓
嫕
嫗
嫙
嫛
嫜
嫝
嫞
嫟
嫠
嫢
嫤
嫥
嫧
嫨
嫪
嫫
嫬
嫭
嫮
嫯
嫰
嫱
嫳
嫴
嫶
嫷
嫸
嫹
嫺
嫼
嫽
嫾
嫿
嬀
嬁
嬂
嬃
嬄
嬆
嬇
嬈
嬊
嬋
嬍
嬎
嬏
嬐
嬑
嬒
嬓
嬔
嬕
嬖
嬘
嬙
嬚
嬜
嬝
嬞
嬟
嬠
嬡
嬣
嬥
嬦
嬧
嬨
嬩
嬫
嬬
嬭
嬮
嬯
嬱
嬲
嬳
嬵
嬶
嬹
嬺
嬻
嬼
嬽
嬾
孁
孂
孄
孅
孆
孇
孈
孉
孊
孋
孌
孍
孎
孏
孒
孓
孞
孠
孡
孥
孧
孨
孭
孮
孯
孲
孴
孶
孷
孹
孻
孼
孾
宀
宂
宄
宆
宊
宍
宎
宐
宑
宒
宔
宖
宧
宨
宩
宬
宭
宯
宱
宲
宷
宺
宻
宼
寀
寁
寃
寈
寉
寊
寋
寍
寎
寏
寑
寔
寕
寖
寗
寘
寙
寚
寜
寠
寣
寤
寪
寭
寯
寱
寲
寳
寴
寷
寽
尀
尃
尅
尌
尐
尒
尓
尗
尙
尛
尜
尞
尟
尠
尡
尢
尣
尥
尦
尨
尩
尪
尫
尭
尮
尯
尰
尲
尳
尵
尶
屃
屇
屒
屓
屔
屖
屗
屘
屙
屚
屛
屝
屟
屣
屦
屧
屨
屩
屪
屫
屭
屮
屰
屲
屳
屴
屵
屶
屷
屸
屺
屻
屼
屽
屾
岃
岄
岅
岆
岇
岈
岉
岊
岋
岍
岎
岏
岒
岓
岕
岜
岝
岞
岟
岠
岢
岣
岤
岥
岦
岧
岨
岪
岮
岯
岰
岲
岴
岵
岶
岹
岺
岻
岼
岽
岾
岿
峀
峁
峂
峃
峄
峅
峆
峈
峉
峊
峌
峍
峎
峏
峐
峑
峓
峔
峕
峖
峗
峘
峚
峛
峜
峝
峞
峟
峠
峢
峣
峧
峩
峫
峬
峮
峱
峲
峳
峵
峷
峸
峹
峺
峼
峾
峿
崀
崃
崄
崅
崈
崉
崊
崋
崌
崍
崏
崐
崒
崓
崕
崘
崚
崜
崝
崞
崟
崠
崡
崢
崣
崤
崥
崦
崨
崪
崫
崬
崮
崯
崰
崱
崲
崳
崵
崶
崷
崸
崹
崺
崻
崼
崾
崿
嵀
嵁
嵂
嵃
嵄
嵅
嵆
嵈
嵉
嵍
嵎
嵏
嵑
嵒
嵓
嵔
嵕
嵖
嵗
嵙
嵚
嵛
嵜
嵝
嵞
嵟
嵠
嵡
嵢
嵣
嵤
嵥
嵦
嵧
嵨
嵪
嵫
嵭
嵮
嵰
嵱
嵲
嵳
嵴
嵵
嵶
嵷
嵸
嵹
嵺
嵻
嵼
嵽
嵾
嵿
嶀
嶁
嶃
嶅
嶆
嶈
嶉
嶊
嶌
嶍
嶎
嶏
嶐
嶑
嶒
嶓
嶔
嶕
嶖
嶗
嶘
嶚
嶛
嶜
嶝
嶞
嶟
嶠
嶡
嶢
嶣
嶤
嶥
嶦
嶧
嶨
嶩
嶪
嶫
嶬
嶭
嶮
嶯
嶰
嶱
嶲
嶳
嶴
嶵
嶶
嶷
嶸
嶹
嶻
嶾
嶿
巀
巁
巂
巃
巄
巆
巇
巈
巉
巊
巋
巌
巎
巏
巐
巑
巓
巕
巗
巘
巙
巚
巛
巜
巟
巠
巣
巤
巪
巬
巭
巯
巰
巵
巶
巸
巹
巺
巼
帀
帄
帇
帉
帊
帋
帍
帎
帏
帒
帓
帔
帗
帙
帞
帟
帠
帡
帢
帣
帤
帨
帩
帪
帬
帱
帲
帴
帵
帹
帺
帻
帾
帿
幁
幃
幆
幇
幈
幉
幊
幋
幍
幎
幏
幐
幑
幒
幓
幖
幗
幘
幙
幚
幛
幜
幝
幞
幠
幤
幥
幦
幧
幨
幩
幪
幬
幭
幮
幯
幰
幱
幵
幷
庀
庂
庅
庈
庉
庋
庌
庍
庎
庑
庒
庘
庛
庝
庡
庢
庣
庤
庥
庨
庩
庪
庬
庮
庯
庰
庱
庲
庳
庴
庺
庻
庼
庽
庿
廀
廄
廅
廆
廇
廋
廌
廍
廎
廏
廐
廑
廒
廔
廕
廗
廘
廙
廛
廜
廞
廡
廤
廥
廦
廧
廨
廩
廪
廫
廭
廮
廯
廰
廱
廲
廴
廵
廸
廹
廻
廼
廽
廾
弅
弆
弇
弉
弌
弍
弎
弐
弖
弙
弚
弜
弝
弞
弡
弢
弣
弤
弨
弪
弫
弬
弮
弰
弲
弳
弴
弶
弸
弻
弽
弿
彀
彁
彂
彃
彄
彇
彉
彊
彋
彍
彏
彐
彑
彔
彖
彘
彚
彛
彜
彞
彟
彠
彡
彣
彨
彮
彯
彲
彳
彴
彵
彶
彸
彺
彽
彾
徂
徃
徆
徍
徎
徏
徔
徖
徚
徛
徝
徟
徢
徣
徤
徥
徦
徧
徫
徭
徯
徰
徱
徲
徶
徸
徺
徻
徾
徿
忀
忁
忂
忄
忇
忈
忉
忊
忋
忎
忓
忔
忕
忚
忛
忝
忞
忟
忢
忣
忥
忦
忨
忩
忬
忭
忮
忯
忰
忲
忳
忴
忶
忷
忸
忹
忺
忼
忾
怃
怄
怇
怈
怉
怊
怋
怌
怍
怐
怑
怓
怗
怘
怚
怛
怞
怟
怢
怣
怤
怩
怫
怬
怭
怮
怰
怱
怲
怳
怴
怶
怷
怸
怹
怺
怽
怾
怿
恀
恂
恄
恅
恇
恈
恉
恊
恌
恎
恏
恑
恓
恔
恖
恗
恘
恛
恜
恝
恞
恟
恠
恡
恦
恧
恮
恱
恲
恴
恷
恹
恽
恾
悀
悁
悂
悃
悆
悇
悈
悊
悋
悎
悏
悐
悑
悒
悓
悕
悗
悘
悙
悛
悜
悝
悞
悡
悢
悤
悥
悧
悫
悭
悮
悰
悳
悷
悹
悺
悾
悿
惀
惁
惂
惃
惄
惈
惉
惌
惍
惎
惏
惐
惒
惓
惔
惖
惗
惙
惛
惝
惞
惢
惣
惤
惥
惪
惲
惵
惷
惸
惻
惼
惽
惾
惿
愀
愂
愃
愄
愅
愇
愊
愋
愌
愎
愐
愑
愒
愓
愔
愖
愗
愘
愙
愝
愞
愠
愡
愢
愥
愦
愨
愩
愪
愬
愭
愮
愯
愰
愱
愲
愳
愴
愵
愶
愸
愹
愺
愻
愼
愽
愾
慀
慁
慂
慃
慅
慆
慇
慉
慊
慍
慏
慐
慒
慓
慔
慖
慗
慙
慛
慜
慝
慞
慠
慡
慤
慥
慦
慩
慪
慬
慭
慯
慱
慲
慴
慸
慹
慺
慻
慼
慽
慿
憀
憁
憃
憄
憅
憆
憇
憈
憉
憌
憍
憏
憒
憓
憕
憖
憗
憘
憙
憛
憜
憝
憞
憟
憠
憡
憢
憣
憥
憦
憪
憭
憮
憯
憰
憱
憳
憴
憵
憷
憸
憹
憺
憻
憼
憽
憿
懀
懁
懃
懄
懅
懆
懌
懍
懎
懏
懐
懓
懔
懕
懖
懗
懘
懙
懚
懛
懜
懝
懞
懟
懠
懡
懢
懣
懤
懥
懧
懨
懩
懪
懫
懬
懭
懮
懯
懰
懱
懳
懴
懹
懻
懽
戁
戂
戃
戄
戅
戆
戇
戉
戋
戓
戔
戗
戙
戜
戝
戞
戠
戢
戣
戤
戥
戧
戨
戩
戫
戭
戯
戱
戵
戹
戺
戼
戽
扂
扃
扄
扅
扆
扊
扌
扏
扐
扖
扗
扙
扚
扜
扝
扞
扟
扠
扡
扢
扤
扥
扨
扲
扴
扵
扷
扸
扺
扻
扽
抁
抂
抃
抅
抆
抇
抈
抋
抌
抍
抎
抏
抐
抔
抙
抝
抣
抦
抧
抩
抪
抭
抮
抯
抰
抲
抳
抴
抶
抷
抸
抺
抻
抾
拀
拁
拃
拊
拏
拑
拕
拝
拞
拠
拤
拪
拫
拰
拲
拵
拶
拸
拹
拺
拻
挀
挃
挄
挅
挆
挊
挋
挌
挍
挏
挐
挒
挓
挔
挕
挗
挘
挜
挢
挦
挧
挩
挬
挭
挮
挰
挱
挳
挴
挵
挶
挷
挸
挻
挼
挿
捀
捁
捃
捄
捇
捈
捊
捑
捒
捓
捔
捖
捗
捘
捙
捚
捛
捜
捝
捠
捤
捥
捦
捪
捫
捬
捭
捯
捰
捳
捴
捵
捸
捹
捼
捽
捾
捿
掁
掄
掅
掆
掊
掋
掍
掎
掑
掓
掔
掕
掗
掚
掜
掝
掞
掟
掤
掦
掫
掭
掮
掯
掱
掵
掶
掹
掻
掼
掽
掾
掿
揁
揂
揅
揇
揈
揊
揋
揌
揎
揑
揓
揔
揕
揗
揘
揙
揜
揝
揞
揟
揠
揢
揤
揥
揦
揧
揨
揫
揬
揯
揰
揱
揲
揳
揵
揷
揺
揻
揼
揾
揿
搃
搄
搆
搇
搈
搉
搊
搋
搌
搎
搑
搒
搕
搘
搙
搚
搛
搝
搟
搠
搢
搣
搤
搥
搦
搧
搨
搩
搫
搮
搯
搰
搱
搲
搳
搴
搷
搸
搹
搻
搼
搾
搿
摂
摃
摅
摉
摋
摌
摍
摎
摏
摐
摑
摓
摕
摖
摗
摙
摚
摛
摜
摝
摠
摡
摢
摣
摤
摥
摦
摨
摪
摫
摬
摭
摮
摰
摱
摲
摴
摵
摶
摷
摼
摽
摾
摿
撀
撁
撄
撆
撉
撊
撋
撌
撍
撎
撏
撔
撖
撗
撘
撙
撛
撜
撝
撟
撠
撡
撢
撣
撦
撧
撨
撪
撯
撱
撳
撴
撶
撹
撺
撽
撾
擃
擆
擈
擉
擌
擏
擐
擑
擓
擕
擖
擗
擙
擛
擜
擝
擟
擣
擤
擥
擧
擨
擩
擪
擫
擭
擮
擯
擳
擵
擶
擸
擹
擻
擽
擿
攁
攂
攃
攄
攅
攆
攇
攈
攉
攊
攋
攌
攍
攎
攐
攑
攓
攕
攖
攗
攚
攛
攟
攠
攡
攦
攧
攨
攩
攭
攮
攰
攱
攲
攳
攴
攵
攷
攺
攼
攽
敀
敁
敂
敃
敄
敆
敇
敉
敊
敋
敐
敒
敓
敔
敚
敜
敟
敠
敡
敤
敥
敧
敨
敩
敪
敫
敭
敮
敯
敱
敳
敶
敹
敺
敻
敼
敽
敾
敿
斀
斁
斄
斅
斆
斈
斉
斊
斍
斏
斒
斔
斕
斖
斘
斚
斝
斞
斠
斢
斣
斦
斨
斪
斮
斱
斲
斳
斴
斵
斶
斸
斺
斻
斾
斿
旀
旂
旄
旆
旇
旈
旉
旊
旍
旐
旑
旒
旓
旔
旕
旘
旙
旚
旛
旜
旝
旞
旟
旡
旣
旤
旪
旫
旯
旰
旲
旳
旴
旵
旸
旹
旼
旽
旾
旿
昁
昃
昄
昅
昈
昋
昍
昐
昑
昒
昖
昗
昘
昚
昛
昜
昝
昞
昡
昢
昣
昤
昦
昩
昪
昫
昬
昮
昰
昲
昳
昷
昸
昹
昺
昻
昽
昿
晀
晄
晅
晆
晇
晈
晊
晍
晎
晐
晑
晘
晙
晛
晜
晠
晡
晢
晣
晥
晧
晪
晫
晬
晭
晱
晲
晳
晵
晸
晹
晻
晼
晽
晿
暀
暁
暃
暅
暆
暊
暋
暍
暎
暏
暒
暓
暔
暕
暘
暙
暚
暛
暜
暞
暟
暠
暡
暣
暤
暥
暦
暩
暪
暬
暭
暯
暰
暲
暳
暵
暶
暷
暺
暻
暼
暽
暾
暿
曀
曁
曂
曃
曅
曈
曊
曋
曌
曍
曎
曏
曐
曑
曒
曓
曔
曕
曗
曘
曚
曛
曞
曟
曡
曢
曣
曤
曥
曧
曨
曩
曪
曫
曭
曮
曯
曱
曵
曶
曷
曺
曻
曽
朁
朂
朄
朅
朆
朇
朊
朌
朎
朏
朑
朒
朓
朖
朘
朙
朚
朜
朞
朠
朡
朢
朣
朤
朥
朩
朰
朲
朳
朶
朷
朸
朹
朻
朼
朾
朿
杁
杄
杅
杇
杊
杋
杌
杍
杒
杔
杕
杗
杘
杙
杚
杛
杝
杢
杣
杤
杦
杧
杩
杪
杫
杬
杮
杲
杴
杶
杸
杹
杺
杻
杽
枀
枂
枃
枅
枆
枈
枊
枌
枍
枎
枏
枑
枒
枓
枔
枖
枘
枙
枛
枞
枟
枠
枡
枤
枥
枦
枧
枨
枩
枬
枮
枲
枴
枵
枹
枺
枻
枼
枽
枾
枿
柀
柁
柂
柃
柅
柆
柇
柈
柉
柊
柋
柌
柍
柎
柕
柖
柗
柙
柛
柝
柟
柡
柣
柤
柦
柧
柨
柪
柫
柭
柮
柰
柲
柶
柷
柸
柹
柺
柼
柽
柾
栁
栂
栆
栊
栌
栍
栐
栒
栔
栕
栘
栙
栚
栛
栜
栝
栞
栟
栠
栢
栣
栤
栥
栦
栧
栨
栫
栬
栭
栮
栯
栰
栱
栲
栳
栴
栵
栶
栺
栻
栿
桄
桇
桊
桋
桍
桏
桒
桕
桖
桗
桘
桙
桚
桛
桝
桞
桟
桤
桪
桫
桬
桭
桮
桯
桰
桱
桲
桳
桴
桵
桷
桸
桹
桺
桻
桼
桽
桾
梀
梂
梃
梄
梇
梈
梉
梊
梋
梌
梍
梎
梐
梑
梒
梔
梕
梖
梘
梙
梚
梛
梜
梞
梠
梡
梣
梤
梥
梩
梪
梫
梬
梮
梱
梲
梴
梷
梸
梹
梺
梻
梼
梽
梾
梿
棁
棃
棅
棆
棇
棈
棊
棌
棎
棏
棐
棑
棓
棔
棖
棙
棛
棜
棝
棞
棡
棢
棤
棥
棦
棨
棩
棪
棫
棬
棭
棯
棰
棳
棴
棶
棷
棸
棻
棼
棽
棾
棿
椀
椂
椃
椄
椆
椇
椈
椉
椊
椌
椏
椐
椑
椓
椔
椕
椖
椗
椘
椙
椚
椛
椝
椞
椟
椠
椡
椢
椣
椤
椥
椦
椧
椨
椩
椫
椬
椮
椯
椱
椲
椳
椴
椵
椶
椷
椸
椺
椻
椼
椾
楀
楁
楃
楄
楅
楆
楇
楈
楉
楋
楌
楍
楎
楏
楐
楑
楒
楕
楖
楗
楘
楙
楛
楜
楟
楡
楢
楤
楥
楦
楧
楩
楪
楬
楯
楰
楱
楲
楳
楴
楶
楺
楻
楾
楿
榀
榁
榃
榅
榇
榊
榋
榌
榍
榎
榏
榐
榑
榒
榓
榗
榘
榙
榚
榝
榞
榟
榠
榡
榢
榣
榤
榥
榦
榧
榩
榪
榬
榯
榰
榲
榳
榵
榶
榸
榹
榺
榼
榽
榾
榿
槀
槂
槄
槅
槆
槇
槈
槉
槊
槏
槑
槒
槔
槕
槖
槗
槙
槚
槜
槝
槞
槠
槡
槢
槣
槥
槦
槧
槨
槩
槪
槫
槬
槮
槯
槰
槱
槴
槵
槶
槷
槸
槹
槺
槼
槾
樀
樃
樄
樅
樆
樇
樈
樉
樋
樌
樍
樎
樏
樐
樒
樔
樕
樖
樗
樘
樚
樛
樜
樝
樠
樢
樤
樥
樦
樧
樨
樬
樭
樮
樰
樲
樳
樴
樶
樷
樻
樼
樿
橀
橁
橂
橃
橅
橆
橈
橉
橊
橌
橍
橎
橏
橑
橒
橓
橔
橕
橖
橗
橚
橛
橜
橝
橞
橠
橣
橤
橥
橦
橧
橨
橩
橪
橬
橭
橮
橯
橰
橲
橳
橴
橵
橶
橷
橸
橺
橻
橽
橾
橿
檁
檂
檃
檅
檆
檇
檈
檉
檊
檋
檌
檍
檏
檑
檒
檓
檕
檖
檘
檙
檚
檛
檝
檞
檟
檠
檡
檣
檤
檥
檦
檧
檨
檩
檪
檫
檭
檮
檰
檱
檲
檴
檵
檶
檷
檹
檺
檼
檽
檾
檿
櫀
櫁
櫂
櫄
櫅
櫆
櫇
櫈
櫉
櫊
櫋
櫌
櫍
櫎
櫏
櫐
櫑
櫒
櫓
櫔
櫕
櫖
櫗
櫘
櫙
櫜
櫝
櫞
櫟
櫠
櫡
櫢
櫣
櫤
櫦
櫧
櫨
櫩
櫪
櫫
櫬
櫭
櫮
櫯
櫰
櫱
櫲
櫳
櫴
櫵
櫶
櫷
櫹
櫺
櫼
櫽
櫾
櫿
欀
欁
欂
欃
欅
欆
欇
欈
欉
欋
欌
欍
欎
欏
欐
欑
欓
欔
欕
欗
欘
欙
欚
欛
欜
欝
欞
欟
欤
欥
欦
欨
欩
欪
欫
欬
欭
欮
欯
欰
欱
欳
欴
欵
欶
欷
欹
欻
欼
欿
歀
歁
歂
歃
歄
歅
歈
歊
歋
歍
歏
歑
歒
歔
歕
歖
歗
歘
歚
歜
歝
歞
歟
歠
歨
歫
歬
歭
歮
歰
歱
歵
歶
歺
歽
歾
歿
殀
殂
殄
殅
殈
殌
殍
殎
殏
殐
殑
殔
殕
殗
殙
殚
殛
殜
殝
殟
殠
殢
殣
殥
殦
殧
殨
殩
殪
殫
殬
殮
殰
殱
殳
殶
殸
殹
殻
殽
殾
毃
毄
毇
毈
毉
毊
毌
毐
毑
毖
毚
毜
毝
毞
毟
毠
毢
毣
毤
毥
毦
毧
毨
毩
毪
毬
毭
毮
毰
毱
毲
毳
毴
毵
毶
毷
毸
毹
毺
毻
毼
毾
毿
氀
氁
氂
氃
氄
氅
氆
氇
氉
氊
氋
氌
氍
氎
氒
氕
氘
氚
氜
氝
氞
氠
氥
氩
氬
氭
氱
氳
氵
氶
氺
氻
氼
氽
氿
汃
汄
汅
汈
汊
汋
汌
汍
汏
汑
汒
汓
汔
汖
汘
汚
汜
汢
汣
汥
汦
汧
汫
汬
汭
汮
汯
汱
汳
汵
汷
汸
汻
汼
汿
沀
沄
沆
沇
沊
沋
沍
沎
沑
沔
沕
沗
沘
沚
沜
沝
沞
沠
沤
沨
沩
沬
沯
沰
沲
沴
沵
沶
沷
沺
泀
泂
泃
泅
泆
泇
泈
泋
泍
泎
泏
泐
泑
泒
泔
泖
泘
泙
泚
泜
泝
泟
泤
泦
泧
泩
泬
泭
泲
泴
泶
泹
泺
泿
洀
洂
洃
洅
洆
洇
洈
洉
洊
洌
洍
洎
洏
洐
洑
洓
洔
洕
洖
洘
洚
洜
洝
洟
洠
洡
洢
洣
洤
洦
洧
洨
洫
洬
洭
洯
洰
洳
洴
洷
洺
洿
浀
浂
浈
浉
浌
浍
浐
浕
浖
浗
浘
浛
浝
浞
浟
浠
浡
浢
浤
浥
浧
浨
浫
浭
浰
浱
浲
浳
浵
浶
浹
浺
浻
浼
浽
浾
浿
涀
涁
涃
涄
涆
涊
涋
涍
涏
涐
涑
涒
涖
涗
涘
涚
涜
涢
涥
涫
涬
涭
涰
涱
涳
涴
涶
涷
涹
涺
涻
涽
涾
淁
淂
淃
淈
淉
淊
淍
淎
淏
淐
淓
淔
淕
淗
淛
淜
淝
淟
淠
淢
淣
淥
淧
淭
淯
淰
淲
淴
淶
淸
淽
淾
淿
渀
渁
渂
渃
渄
渆
渇
渌
渏
渑
渒
渓
渕
渖
渘
渜
渞
渟
渢
渧
渨
渪
渫
渮
渰
渱
渳
渵
渶
渷
渹
渻
渼
渽
渿
湀
湁
湂
湅
湆
湇
湈
湉
湋
湌
湎
湏
湐
湑
湒
湓
湔
湕
湗
湙
湚
湜
湝
湞
湠
湡
湢
湣
湤
湥
湦
湨
湩
湪
湬
湭
湰
湱
湲
湴
湵
湶
湷
湸
湹
湺
湻
湼
湽
溁
溂
溄
溆
溇
溈
溊
溋
溌
溍
溎
溑
溒
溓
溔
溕
溗
溘
溙
溚
溛
溞
溠
溡
溣
溤
溦
溨
溩
溬
溭
溮
溰
溲
溳
溵
溷
溸
溹
溻
溽
溾
溿
滀
滃
滆
滈
滉
滊
滍
滎
滏
滐
滒
滖
滗
滘
滛
滜
滠
滣
滧
滪
滫
滭
滮
滰
滱
滳
滵
滶
滹
滺
滻
滼
滽
漀
漃
漄
漅
漇
漈
漊
漋
漌
漍
漎
漐
漑
漒
漖
漗
漘
漙
漚
漛
漜
漝
漞
漟
漡
漤
漥
漦
漧
漨
漭
漮
漰
漴
漵
漶
漷
漹
漺
漻
漼
漽
潀
潁
潂
潃
潄
潅
潈
潉
潊
潌
潎
潏
潐
潒
潓
潕
潖
潗
潙
潚
潝
潠
潡
潣
潥
潨
潩
潪
潫
潬
潯
潱
潲
潳
潵
潶
潷
潹
潻
潽
潾
潿
澁
澂
澃
澅
澇
澉
澊
澋
澌
澏
澐
澑
澒
澓
澔
澕
澖
澘
澙
澚
澛
澝
澞
澟
澠
澢
澣
澥
澦
澨
澩
澪
澫
澬
澭
澮
澯
澰
澲
澴
澵
澶
澷
澸
澺
澻
澼
澽
澾
澿
濄
濅
濆
濇
濈
濉
濊
濋
濌
濍
濎
濏
濐
濓
濔
濖
濗
濙
濚
濜
濝
濞
濢
濣
濥
濦
濧
濨
濩
濪
濭
濰
濲
濳
濴
濵
濶
濷
濸
濹
濻
濼
濽
濿
瀀
瀁
瀂
瀃
瀄
瀇
瀈
瀊
瀌
瀍
瀎
瀐
瀒
瀓
瀔
瀖
瀗
瀙
瀜
瀠
瀡
瀢
瀣
瀤
瀥
瀦
瀩
瀪
瀫
瀭
瀮
瀯
瀱
瀲
瀳
瀴
瀵
瀶
瀷
瀸
瀹
瀺
瀻
瀼
瀽
瀿
灀
灁
灂
灃
灄
灅
灆
灇
灈
灉
灊
灋
灍
灎
灐
灒
灓
灔
灕
灖
灗
灙
灚
灛
灜
灟
灠
灡
灢
灤
灥
灦
灧
灨
灩
灪
灮
灱
灲
灳
灴
灷
灹
灺
灻
炂
炃
炄
炆
炇
炈
炋
炌
炍
炏
炐
炑
炓
炗
炘
炚
炛
炝
炞
炟
炠
炡
炢
炣
炤
炥
炦
炧
炨
炩
炪
炰
炱
炲
炴
炵
炶
炻
炾
炿
烀
烄
烅
烆
烇
烉
烋
烌
烍
烎
烐
烑
烒
烓
烔
烕
烖
烗
烚
烜
烝
烞
烠
烡
烢
烣
烥
烪
烮
烰
烱
烲
烳
烴
烵
烶
烸
烺
烻
烼
烾
烿
焀
焁
焂
焃
焄
焅
焆
焇
焈
焋
焌
焍
焎
焏
焐
焑
焒
焓
焔
焛
焝
焞
焟
焠
焢
焣
焤
焥
焧
焨
焩
焪
焫
焬
焭
焮
焲
焳
焴
焵
焷
焸
焹
焺
焻
焽
焾
焿
煀
煁
煂
煃
煄
煆
煇
煈
煋
煍
煏
煐
煑
煓
煔
煕
煗
煘
煚
煛
煝
煟
煠
煡
煢
煣
煪
煫
煬
煭
煯
煰
煱
煳
煴
煵
煶
煷
煹
煺
煻
煼
煾
煿
熀
熁
熂
熃
熅
熆
熇
熈
熉
熋
熌
熍
熎
熐
熑
熓
熕
熖
熗
熘
熚
熛
熜
熝
熞
熡
熢
熣
熤
熥
熦
熧
熩
熪
熫
熭
熮
熯
熰
熲
熳
熴
熶
熷
熸
熺
熻
熼
熽
熿
燀
燂
燅
燆
燇
燋
燌
燍
燏
燐
燑
燓
燖
燗
燘
燚
燛
燝
燞
燠
燡
燢
燣
燤
燨
燩
燪
燫
燬
燯
燰
燱
燲
燳
燵
燶
燷
燸
燹
燺
燽
燾
爀
爁
爂
爃
爄
爅
爇
爈
爉
爊
爋
爌
爎
爏
爑
爒
爓
爔
爕
爖
爗
爘
爙
爚
爜
爝
爞
爟
爠
爡
爢
爣
爤
爥
爦
爧
爨
爩
爫
爮
爯
爳
爴
爼
爿
牀
牁
牂
牃
牄
牅
牉
牊
牋
牎
牏
牐
牑
牓
牔
牕
牖
牗
牘
牚
牜
牞
牣
牤
牥
牨
牪
牫
牬
牭
牮
牰
牱
牳
牶
牷
牸
牻
牼
牾
牿
犂
犃
犅
犆
犇
犈
犉
犋
犌
犎
犏
犐
犑
犓
犔
犕
犖
犗
犘
犙
犚
犛
犜
犝
犞
犟
犠
犡
犣
犤
犥
犦
犨
犩
犪
犫
犭
犮
犰
犱
犲
犳
犴
犵
犺
犻
犼
犽
犾
犿
狁
狃
狅
狆
狇
狉
狊
狋
狌
狍
狏
狑
狓
狔
狕
狖
狘
狚
狛
狜
狝
狟
狢
狣
狤
狥
狦
狧
狨
狪
狫
狯
狲
狳
狴
狵
狶
狷
狺
狻
狾
狿
猀
猁
猂
猃
猄
猅
猆
猇
猈
猉
猊
猋
猌
猍
猏
猐
猑
猒
猓
猔
猘
猚
猞
猟
猠
猡
猢
猣
猤
猦
猧
猨
猭
猯
猰
猱
猲
猳
猵
猸
猹
猺
猻
猼
猽
獀
獁
獂
獃
獆
獇
獈
獉
獊
獋
獌
獍
獏
獑
獓
獔
獕
獖
獘
獙
獚
獛
獜
獝
獞
獟
獡
獢
獤
獥
獦
獧
獩
獪
獫
獬
獮
獯
獱
獳
獴
獶
獹
獽
獿
玀
玁
玂
玃
玅
玆
玈
玊
玌
玍
玎
玏
玐
玒
玓
玔
玕
玗
玘
玙
玚
玜
玝
玞
玡
玢
玣
玤
玦
玧
玨
玪
玬
玭
玱
玴
玵
玶
玸
玹
玼
玽
玾
玿
珁
珃
珄
珆
珇
珋
珌
珎
珒
珓
珔
珕
珖
珗
珘
珚
珛
珜
珝
珟
珡
珢
珤
珦
珧
珨
珫
珬
珯
珰
珱
珳
珴
珵
珶
珷
珸
珹
珻
珼
珽
珿
琀
琁
琂
琄
琈
琋
琌
琎
琑
琒
琓
琔
琕
琖
琗
琘
琙
琚
琜
琝
琞
琟
琠
琡
琣
琤
琧
琩
琫
琭
琯
琱
琷
琸
琹
琻
琽
琾
琿
瑂
瑃
瑅
瑆
瑇
瑈
瑉
瑊
瑌
瑍
瑎
瑏
瑐
瑑
瑒
瑓
瑔
瑖
瑘
瑝
瑡
瑢
瑥
瑦
瑧
瑨
瑫
瑬
瑭
瑮
瑱
瑲
瑳
瑴
瑵
瑷
瑸
瑹
瑺
瑻
瑼
瑽
瑿
璂
璄
璅
璆
璈
璊
璌
璍
璏
璑
璒
璓
璔
璕
璖
璗
璘
璙
璚
璛
璝
璠
璡
璢
璣
璤
璥
璦
璩
璪
璫
璬
璭
璮
璯
璱
璲
璳
璴
璵
璶
璷
璸
璹
璺
璻
璼
璾
瓀
瓁
瓂
瓃
瓄
瓅
瓆
瓇
瓈
瓉
瓋
瓌
瓍
瓎
瓐
瓑
瓓
瓔
瓕
瓖
瓗
瓘
瓙
瓚
瓛
瓝
瓞
瓟
瓠
瓡
瓥
瓧
瓨
瓩
瓪
瓫
瓬
瓭
瓰
瓱
瓲
瓳
瓵
瓸
瓹
瓺
瓻
瓼
瓽
瓾
瓿
甀
甁
甂
甃
甅
甆
甇
甈
甉
甊
甋
甍
甎
甏
甐
甑
甒
甓
甔
甖
甗
甛
甝
甞
甠
甡
甤
甧
甪
甮
甴
甶
甹
甼
甽
甿
畁
畂
畃
畄
畆
畇
畈
畉
畊
畋
畍
畎
畐
畒
畓
畕
畖
畗
畘
畚
畛
畞
畟
畠
畡
畣
畤
畧
畨
畩
畬
畭
畮
畯
畱
畵
畷
畺
畻
畼
畽
畾
疀
疁
疂
疃
疄
疅
疈
疉
疋
疌
疍
疎
疐
疒
疓
疕
疘
疛
疜
疞
疠
疢
疦
疧
疨
疩
疪
疬
疭
疰
疴
疶
疷
疺
疻
疿
痀
痁
痃
痄
痆
痋
痌
痎
痏
痐
痑
痓
痖
痗
痚
痜
痝
痟
痡
痥
痦
痩
痬
痭
痮
痯
痲
痳
痵
痶
痷
痸
痻
痽
痾
瘂
瘃
瘄
瘅
瘆
瘇
瘈
瘉
瘊
瘌
瘎
瘏
瘐
瘑
瘒
瘔
瘕
瘖
瘗
瘚
瘛
瘜
瘝
瘞
瘣
瘥
瘨
瘬
瘭
瘮
瘯
瘰
瘱
瘲
瘳
瘵
瘶
瘷
瘹
瘺
瘻
瘼
瘽
瘿
癀
癁
癃
癄
癅
癆
癈
癉
癊
癋
癍
癎
癏
癐
癑
癓
癔
癕
癗
癘
癙
癚
癛
癝
癟
癠
癤
癦
癧
癨
癩
癪
癭
癯
癰
癳
癴
癵
癶
癷
癹
癿
皀
皁
皃
皅
皉
皊
皌
皍
皏
皐
皒
皔
皕
皗
皘
皛
皜
皝
皞
皟
皠
皡
皢
皣
皤
皥
皦
皧
皨
皩
皪
皫
皬
皭
皯
皲
皳
皵
皶
皷
皸
皹
皻
皼
皽
皾
盀
盁
盄
盇
盉
盋
盌
盍
盓
盕
盙
盚
盝
盠
盢
盦
盨
盩
盫
盬
盭
盰
盳
盵
盶
盷
盺
盻
盽
盿
眀
眂
眃
眄
眅
眆
眇
眊
眍
眎
眏
眐
眑
眒
眓
眔
眕
眖
眗
眘
眚
眛
眜
眝
眡
眢
眣
眤
眥
眧
眪
眫
眬
眭
眮
眰
眱
眲
眳
眴
眵
眹
眻
眽
眿
睂
睃
睄
睅
睆
睈
睉
睊
睋
睌
睍
睎
睒
睓
睔
睕
睖
睗
睘
睙
睚
睝
睟
睠
睤
睧
睩
睭
睮
睯
睰
睱
睲
睳
睴
睵
睶
睷
睸
睺
睻
睼
瞀
瞁
瞂
瞃
瞆
瞈
瞉
瞊
瞍
瞏
瞐
瞔
瞕
瞖
瞗
瞘
瞙
瞚
瞛
瞜
瞝
瞡
瞢
瞣
瞤
瞦
瞨
瞫
瞮
瞯
瞱
瞲
瞴
瞵
瞶
瞷
瞸
瞹
瞺
瞽
瞾
矀
矁
矂
矃
矄
矅
矆
矈
矉
矊
矋
矌
矎
矏
矐
矑
矒
矓
矔
矕
矖
矘
矙
矝
矞
矟
矠
矡
矤
矦
矧
矨
矪
矬
矰
矱
矲
矴
矵
矷
矸
矹
矺
矻
矼
砀
砃
砄
砅
砆
砇
砈
砉
砊
砋
砎
砏
砐
砑
砓
砕
砘
砙
砛
砜
砞
砟
砠
砡
砢
砤
砦
砨
砩
砪
砫
砬
砮
砯
砱
砳
砵
砶
砹
砻
砽
砿
硁
硂
硃
硄
硆
硇
硈
硉
硊
硋
硌
硍
硎
硏
硑
硓
硔
硖
硗
硘
硙
硚
硛
硜
硞
硟
硠
硡
硢
硣
硤
硥
硦
硧
硨
硩
硪
硭
硰
硱
硲
硳
硴
硵
硶
硷
硸
硹
硺
硻
硽
硾
硿
碀
碂
碃
碄
碅
碆
碈
碊
碋
碏
碐
碒
碔
碕
碖
碙
碜
碝
碞
碠
碡
碢
碤
碥
碦
碨
碪
碫
碬
碭
碮
碯
碲
碵
碶
碷
碸
碹
碻
碽
碿
磀
磂
磃
磄
磆
磇
磈
磉
磌
磍
磎
磏
磑
磒
磓
磔
磖
磗
磘
磙
磛
磜
磝
磞
磟
磠
磢
磣
磤
磥
磦
磧
磩
磪
磫
磭
磮
磰
磱
磳
磴
磵
磶
磸
磹
磻
磼
磽
磾
磿
礀
礂
礃
礄
礅
礆
礇
礈
礉
礊
礋
礌
礍
礏
礐
礑
礒
礓
礔
礕
礖
礗
礘
礚
礛
礜
礝
礞
礟
礠
礢
礣
礤
礥
礧
礨
礩
礬
礭
礮
礯
礰
礱
礲
礳
礵
礶
礷
礸
礹
礻
礽
礿
祃
祄
祅
祆
祊
祋
祌
祍
祏
祑
祒
祓
祔
祘
祙
祡
祣
祤
祦
祧
祩
祪
祫
祬
祮
祰
祱
祲
祳
祴
祵
祶
祹
祻
祼
祽
祾
禂
禃
禆
禇
禈
禉
禊
禋
禌
禐
禑
禒
禓
禔
禕
禖
禗
禘
禙
禚
禜
禝
禞
禟
禠
禡
禢
禣
禤
禥
禨
禩
禫
禬
禭
禯
禰
禲
禳
禴
禵
禶
禷
禸
禼
秂
秄
秅
秇
秈
秊
秌
秎
秏
秐
秓
秔
秕
秖
秗
秙
秚
秛
秜
秝
秞
秠
秡
秢
秥
秨
秪
秫
秬
秮
秱
秲
秳
秴
秵
秶
秷
秹
秺
秼
秾
秿
稁
稂
稃
稄
稆
稇
稈
稉
稊
稌
稏
稐
稑
稒
稓
稕
稖
稘
稙
稛
稝
稡
稢
稤
稥
稦
稧
稨
稩
稪
稫
稬
稭
稯
稰
稴
稵
稶
稸
稺
稾
穁
穃
穄
穅
穇
穈
穉
穊
穋
穏
穐
穑
穒
穓
穔
穕
穖
穘
穙
穚
穛
穜
穝
穞
穟
穠
穡
穣
穤
穥
穦
穧
穨
穪
穬
穭
穮
穯
穰
穱
穲
穳
穵
穸
穻
穼
穽
穾
窀
窂
窅
窆
窇
窉
窊
窋
窌
窎
窏
窐
窔
窙
窚
窛
窞
窡
窢
窣
窤
窧
窫
窬
窭
窰
窱
窲
窳
窴
窵
窶
窷
窸
窹
窻
窼
窽
窾
竀
竁
竂
竃
竆
竈
竉
竌
竍
竎
竏
竐
竑
竒
竓
竔
竕
竗
竘
竚
竛
竝
竡
竢
竤
竦
竧
竨
竩
竪
竫
竬
竮
竰
竱
竲
竳
竴
竵
竷
竸
竻
竼
竾
笀
笁
笂
笄
笅
笇
笉
笊
笌
笍
笎
笐
笒
笓
笕
笖
笗
笘
笚
笜
笝
笟
笡
笢
笣
笤
笥
笧
笩
笪
笫
笭
笮
笯
笰
笱
笲
笳
笴
笵
笶
笷
笸
笻
笽
笾
笿
筀
筁
筂
筃
筄
筅
筇
筈
筌
筎
筓
筕
筗
筘
筙
筚
筜
筞
筟
筡
筢
筣
筤
筥
筦
筧
筨
筩
筪
筫
筬
筭
筮
筯
筰
筳
筴
筶
筸
筺
筻
筼
筽
筿
箁
箂
箃
箄
箅
箆
箈
箉
箊
箌
箎
箑
箒
箓
箖
箘
箙
箚
箛
箜
箞
箟
箠
箢
箣
箤
箥
箦
箧
箨
箪
箬
箮
箯
箰
箲
箳
箵
箶
箷
箹
箺
箻
箼
箽
箾
箿
篂
篃
篅
篈
篊
篋
篌
篍
篎
篏
篐
篒
篔
篕
篖
篗
篘
篚
篛
篜
篞
篟
篢
篣
篥
篦
篧
篨
篫
篬
篭
篯
篰
篲
篳
篴
篵
篶
篸
篹
篺
篻
篼
篽
篾
篿
簀
簁
簂
簃
簄
簅
簆
簈
簉
簊
簋
簎
簏
簐
簑
簒
簓
簔
簕
簖
簗
簘
簙
簚
簛
簜
簝
簞
簟
簠
簢
簣
簤
簥
簨
簩
簬
簭
簮
簯
簰
簱
簲
簳
簴
簵
簶
簹
簺
簻
簼
籀
籂
籄
籅
籆
籇
籈
籉
籊
籋
籎
籏
籑
籒
籓
籔
籕
籖
籗
籘
籙
籚
籛
籜
籝
籞
籡
籢
籣
籥
籦
籧
籨
籩
籪
籫
籭
籯
籰
籱
籴
籵
籶
籷
籸
籹
籺
籾
籿
粀
粁
粂
粃
粅
粆
粇
粈
粊
粋
粌
粍
粎
粏
粐
粓
粔
粖
粙
粚
粛
粜
粝
粞
粠
粡
粢
粣
粦
粨
粩
粫
粬
粭
粯
粰
粴
粶
粷
粸
粺
粻
糀
糁
糂
糃
糄
糆
糇
糈
糉
糋
糌
糎
糏
糐
糑
糒
糓
糔
糘
糚
糛
糝
糡
糢
糣
糤
糥
糦
糨
糩
糪
糫
糭
糮
糱
糲
糳
糴
糵
糶
糷
糹
糺
糼
糽
糿
紁
紃
紆
紇
紈
紌
紎
紏
紑
紒
紕
紖
紝
紞
紟
紣
紤
紥
紦
紨
紩
紪
紬
紭
紱
紲
紴
紵
紶
紷
紸
紻
紼
紽
紾
紿
絀
絁
絅
絇
絈
絉
絊
絋
絍
絎
絏
絑
絒
絓
絔
絖
絗
絘
絙
絚
絛
絜
絝
絟
絠
絣
絤
絥
絧
絩
絪
絫
絬
絭
絯
絰
絴
絷
絸
絺
絻
絼
絽
絾
絿
綀
綂
綃
綄
綅
綆
綇
綈
綉
綊
綋
綌
綍
綎
綐
綒
綔
綕
綖
綗
綘
綛
綝
綞
綟
綡
綣
綤
綥
綧
綨
綩
綪
綮
綯
綰
綳
綶
綷
綹
綼
緀
緁
緂
緃
緄
緅
緆
緇
緈
緉
緌
緍
緎
緐
緓
緔
緕
緖
緗
緙
緛
緜
緟
緡
緢
緤
緥
緦
緧
緪
緫
緭
緮
緰
緱
緲
緳
緵
緶
緷
緸
緺
緼
緽
緾
緿
縀
縂
縃
縅
縆
縇
縉
縊
縋
縌
縍
縎
縏
縐
縑
縒
縓
縔
縕
縖
縗
縘
縙
縚
縜
縞
縟
縠
縡
縢
縤
縥
縦
縧
縨
縩
縪
縬
縭
縯
縰
縲
縳
縵
縶
縸
縹
縺
縻
縼
縿
繀
繂
繄
繅
繈
繉
繊
繌
繍
繎
繏
繐
繑
繒
繓
繖
繗
繘
繙
繛
繜
繝
繟
繠
繢
繣
繤
繥
繦
繧
繨
繬
繮
繯
繰
繱
繲
繴
繵
繶
繷
繸
繺
繻
繾
繿
纀
纁
纃
纄
纅
纆
纇
纈
纉
纊
纋
纎
纐
纑
纒
纕
纗
纘
纙
纚
纛
纝
纞
纟
纡
纥
纩
纮
纴
纻
纼
绁
绂
绉
绋
绌
绐
绖
绗
绠
绤
绨
绬
绱
绲
绹
绺
缁
缂
缃
缊
缋
缌
缍
缏
缐
缑
缒
缗
缛
缞
缟
缡
缣
缦
缧
缫
缬
缯
缲
缳
缵
缶
缷
缹
缻
缼
缾
缿
罀
罁
罃
罅
罆
罇
罈
罉
罊
罋
罍
罎
罏
罒
罓
罖
罘
罙
罛
罜
罝
罞
罟
罠
罣
罤
罥
罦
罧
罨
罫
罬
罭
罯
罱
罳
罴
罶
罸
罺
罻
罼
罽
罾
罿
羀
羂
羃
羄
羆
羇
羉
羋
羍
羏
羐
羑
羒
羓
羕
羖
羗
羘
羙
羛
羜
羝
羠
羢
羦
羪
羫
羬
羭
羮
羰
羱
羳
羴
羵
羶
羷
羺
羻
羼
羾
翀
翂
翃
翄
翆
翇
翈
翉
翋
翍
翏
翐
翑
翓
翕
翖
翗
翙
翚
翛
翜
翝
翞
翢
翣
翤
翥
翧
翨
翪
翫
翬
翭
翮
翯
翲
翴
翵
翶
翷
翸
翺
翽
翾
翿
耂
耇
耈
耉
耊
耎
耏
耑
耓
耔
耖
耚
耛
耜
耝
耞
耟
耠
耡
耢
耣
耤
耥
耧
耩
耪
耫
耬
耭
耮
耯
耰
耱
耲
耴
耵
耹
耺
耼
耾
聀
聁
聃
聄
聅
聇
聈
聉
聍
聎
聏
聐
聑
聓
聕
聗
聙
聛
聜
聝
聟
聠
聡
聢
聣
聤
聥
聦
聧
聨
聩
聫
聬
聭
聮
聱
聵
聸
聹
聺
聻
聼
肀
肁
肂
肈
肊
肍
肎
肐
肑
肒
肔
肕
肗
肙
肜
肞
肟
肣
肦
肧
肨
肫
肬
肭
肰
肳
肵
肶
肷
肸
肹
肻
肼
胂
胅
胇
胈
胉
胊
胋
胏
胐
胑
胒
胓
胔
胕
胗
胘
胙
胟
胠
胢
胣
胦
胨
胩
胪
胬
胮
胲
胵
胷
胹
胻
胼
胾
胿
脀
脁
脃
脄
脋
脌
脎
脒
脔
脕
脗
脙
脜
脝
脞
脟
脠
脡
脢
脤
脥
脦
脧
脨
脪
脬
脭
脮
脰
脴
脵
脶
脷
脺
脻
脼
脽
脿
腀
腁
腂
腃
腄
腅
腇
腉
腍
腏
腒
腖
腗
腘
腙
腚
腛
腜
腝
腞
腟
腠
腡
腢
腣
腤
腧
腨
腪
腬
腯
腲
腵
腶
腷
腽
膁
膂
膃
膄
膅
膆
膇
膉
膋
膌
膍
膎
膐
膒
膓
膔
膕
膖
膗
膙
膞
膟
膡
膢
膣
膤
膥
膧
膪
膫
膬
膭
膮
膯
膰
膱
膲
膴
膵
膶
膷
膸
膹
膼
臁
臄
臅
臇
臈
臋
臌
臎
臏
臐
臑
臒
臔
臕
臖
臗
臙
臚
臛
臜
臝
臞
臠
臡
臢
臤
臦
臩
臫
臮
臯
臰
臱
臲
臵
臶
臷
臸
臹
臽
臿
舁
舃
舄
舋
舏
舑
舓
舕
舘
舙
舚
舝
舠
舡
舢
舣
舤
舥
舦
舧
舨
舩
舭
舮
舯
舲
舳
舴
舻
舼
舽
舿
艀
艁
艂
艃
艄
艅
艆
艈
艉
艊
艌
艍
艎
艏
艐
艑
艒
艓
艔
艕
艖
艗
艚
艛
艜
艝
艞
艟
艠
艡
艢
艣
艤
艥
艧
艨
艩
艪
艫
艬
艭
艴
艵
艶
艸
艻
艼
艽
艿
芀
芁
芄
芅
芆
芇
芉
芌
芏
芐
芑
芓
芔
芕
芖
芗
芘
芚
芛
芞
芟
芠
芢
芣
芤
芧
芨
芰
芲
芴
芵
芶
芺
芼
芿
苀
苂
苃
苅
苆
苈
苉
苊
苌
苎
苐
苖
苘
苙
苚
苝
苠
苢
苤
苧
苨
苩
苪
苬
苭
苮
苰
苲
苳
苴
苵
苶
苸
苺
苼
苽
苾
苿
茀
茆
茇
茈
茊
茋
茌
茍
茐
茑
茒
茓
茔
茕
茖
茘
茙
茚
茛
茝
茞
茟
茠
茡
茢
茣
茤
茥
茦
茩
茪
茮
茰
茳
茷
茺
茻
茽
茾
茿
荁
荂
荄
荅
荇
荈
荋
荌
荍
荎
荑
荓
荕
荗
荙
荛
荜
荝
荢
荦
荩
荬
荭
荮
荰
荱
荲
荴
荵
荶
荹
荺
荾
荿
莀
莁
莂
莃
莄
莇
莈
莋
莌
莍
莏
莐
莑
莔
莕
莗
莙
莚
莛
莜
莝
莟
莡
莣
莤
莥
莦
莨
莩
莬
莭
莮
莯
莰
莳
莵
莶
莸
莻
莼
莾
菂
菃
菄
菆
菉
菋
菍
菎
菐
菑
菒
菔
菕
菗
菙
菚
菛
菝
菞
菢
菣
菤
菥
菦
菧
菨
菪
菫
菬
菭
菮
菰
菳
菴
菵
菶
菷
菹
菺
菻
菼
菾
菿
萀
萂
萅
萆
萇
萈
萉
萏
萐
萑
萒
萓
萔
萕
萖
萗
萙
萚
萛
萜
萞
萟
萠
萡
萢
萣
萪
萫
萭
萮
萯
萰
萲
萳
萴
萶
萷
萹
萺
萻
萾
萿
葀
葁
葂
葃
葄
葅
葇
葈
葊
葋
葌
葍
葎
葏
葐
葑
葒
葓
葔
葕
葖
葘
葙
葜
葝
葞
葟
葠
葢
葤
葥
葧
葨
葪
葮
葰
葲
葴
葶
葸
葹
葻
葼
葽
葾
葿
蒀
蒁
蒃
蒄
蒅
蒆
蒇
蒈
蒉
蒊
蒌
蒍
蒎
蒏
蒑
蒒
蒓
蒕
蒖
蒗
蒘
蒚
蒛
蒝
蒠
蒢
蒣
蒤
蒥
蒦
蒧
蒩
蒪
蒫
蒬
蒭
蒮
蒯
蒰
蒱
蒳
蒴
蒵
蒶
蒷
蒺
蒽
蒾
蓀
蓂
蓃
蓅
蓇
蓈
蓊
蓌
蓍
蓎
蓏
蓐
蓒
蓔
蓕
蓗
蓘
蓙
蓚
蓛
蓜
蓞
蓠
蓡
蓢
蓣
蓤
蓥
蓧
蓨
蓩
蓪
蓫
蓭
蓯
蓰
蓱
蓲
蓳
蓴
蓵
蓶
蓷
蓸
蓹
蓺
蓻
蓽
蓾
蔀
蔁
蔂
蔃
蔄
蔅
蔆
蔇
蔈
蔉
蔊
蔋
蔌
蔍
蔎
蔏
蔐
蔒
蔕
蔖
蔙
蔛
蔜
蔝
蔞
蔟
蔠
蔢
蔤
蔦
蔧
蔨
蔩
蔪
蔮
蔯
蔰
蔱
蔲
蔳
蔴
蔶
蔸
蔹
蔾
蔿
蕀
蕂
蕄
蕅
蕆
蕇
蕋
蕌
蕍
蕏
蕐
蕑
蕒
蕓
蕔
蕕
蕖
蕗
蕘
蕚
蕛
蕜
蕝
蕞
蕟
蕠
蕡
蕢
蕣
蕥
蕦
蕧
蕫
蕬
蕮
蕯
蕰
蕱
蕳
蕵
蕶
蕷
蕸
蕹
蕺
蕼
蕽
蕿
薀
薁
薂
薃
薆
薉
薋
薌
薍
薎
薐
薒
薓
薕
薖
薗
薘
薚
薜
薝
薞
薟
薠
薡
薢
薣
薤
薥
薧
薫
薭
薮
薱
薲
薳
薴
薵
薶
薷
薸
薺
薻
薼
薽
薾
薿
藀
藁
藂
藃
藄
藅
藆
藇
藈
藊
藋
藌
藎
藑
藒
藔
藖
藗
藘
藙
藚
藛
藞
藟
藠
藡
藢
藣
藦
藧
藨
藪
藫
藬
藭
藮
藯
藰
藱
藲
藳
藴
藵
藶
藷
藸
藺
藼
藽
藾
蘀
蘁
蘂
蘃
蘄
蘅
蘈
蘉
蘌
蘍
蘎
蘏
蘐
蘒
蘓
蘔
蘕
蘖
蘗
蘘
蘙
蘛
蘜
蘝
蘞
蘟
蘠
蘡
蘢
蘣
蘤
蘥
蘦
蘧
蘨
蘩
蘪
蘫
蘬
蘮
蘯
蘰
蘱
蘲
蘳
蘴
蘵
蘶
蘷
蘹
蘺
蘻
蘽
蘾
虀
虁
虂
虃
虄
虅
虆
虇
虈
虉
虊
虋
虌
虍
虒
虓
虖
虗
虘
虙
虝
虠
虡
虣
虤
虥
虦
虨
虩
虪
虭
虮
虯
虰
虲
虳
虴
虵
虶
虷
虸
虺
虼
虿
蚃
蚄
蚅
蚆
蚇
蚈
蚉
蚋
蚍
蚎
蚏
蚐
蚑
蚒
蚔
蚖
蚗
蚘
蚙
蚚
蚛
蚞
蚟
蚠
蚡
蚢
蚥
蚦
蚧
蚨
蚫
蚬
蚭
蚮
蚰
蚲
蚳
蚴
蚶
蚷
蚸
蚹
蚺
蚻
蚼
蚽
蚾
蚿
蛁
蛂
蛃
蛄
蛅
蛈
蛉
蛌
蛍
蛏
蛑
蛒
蛓
蛕
蛖
蛗
蛘
蛚
蛜
蛝
蛞
蛠
蛡
蛢
蛣
蛥
蛦
蛧
蛨
蛩
蛪
蛫
蛬
蛯
蛱
蛲
蛴
蛵
蛶
蛷
蛸
蛺
蛼
蛽
蛿
蜁
蜄
蜅
蜉
蜋
蜌
蜎
蜏
蜐
蜑
蜔
蜖
蜙
蜛
蜝
蜞
蜟
蜠
蜣
蜤
蜦
蜧
蜨
蜩
蜪
蜫
蜬
蜭
蜮
蜯
蜰
蜲
蜳
蜵
蜶
蜸
蜹
蜺
蜼
蜽
蜾
蝀
蝁
蝂
蝃
蝄
蝅
蝆
蝊
蝋
蝍
蝏
蝐
蝑
蝒
蝓
蝔
蝖
蝘
蝚
蝛
蝜
蝝
蝞
蝡
蝢
蝣
蝤
蝥
蝧
蝩
蝪
蝫
蝬
蝭
蝮
蝯
蝰
蝱
蝲
蝳
蝵
蝷
蝹
蝺
蝻
蝽
蝾
蝿
螀
螁
螄
螅
螆
螇
螈
螉
螊
螋
螌
螎
螏
螐
螑
螒
螓
螔
螕
螖
螗
螘
螙
螚
螛
螜
螝
螟
螠
螡
螣
螤
螥
螦
螧
螩
螪
螫
螬
螭
螮
螰
螱
螲
螴
螵
螶
螷
螸
螹
螻
螼
螽
螾
螿
蟁
蟂
蟃
蟅
蟇
蟈
蟉
蟊
蟌
蟍
蟏
蟐
蟓
蟔
蟕
蟖
蟗
蟘
蟙
蟚
蟛
蟜
蟝
蟞
蟟
蟡
蟢
蟣
蟤
蟥
蟦
蟧
蟨
蟩
蟪
蟫
蟭
蟮
蟯
蟰
蟱
蟳
蟴
蟵
蟶
蟷
蟸
蟺
蟼
蟽
蟿
蠀
蠁
蠂
蠃
蠄
蠆
蠇
蠈
蠉
蠊
蠋
蠌
蠎
蠏
蠐
蠑
蠒
蠓
蠖
蠗
蠘
蠙
蠚
蠜
蠝
蠞
蠠
蠤
蠥
蠦
蠧
蠨
蠩
蠪
蠫
蠬
蠭
蠮
蠯
蠰
蠲
蠳
蠴
蠵
蠷
蠸
蠺
蠼
蠽
蠾
蠿
衁
衂
衃
衇
衈
衉
衊
衋
衎
衏
衐
衑
衒
衕
衖
衘
衚
衜
衟
衠
衤
衦
衧
衪
衭
衯
衱
衳
衴
衵
衶
衸
衺
衻
衼
衽
袀
袃
袆
袇
袉
袊
袌
袎
袏
袐
袑
袓
袔
袕
袗
袘
袙
袚
袛
袝
袟
袠
袡
袢
袣
袥
袦
袧
袨
袩
袬
袮
袯
袰
袲
袳
袴
袵
袶
袷
袸
袹
袺
袻
袼
袽
袾
袿
裀
裃
裄
裇
裈
裉
裋
裌
裍
裎
裐
裑
裒
裓
裖
裗
裚
裛
裞
裠
裢
裣
裥
裦
裧
裩
裪
裫
裬
裭
裮
裯
裰
裲
裵
裶
裷
裺
裻
裼
裿
褀
褁
褃
褄
褅
褆
褈
褉
褊
褋
褌
褍
褎
褏
褑
褕
褖
褗
褘
褙
褛
褜
褝
褞
褟
褠
褡
褢
褣
褤
褦
褧
褨
褩
褬
褭
褮
褯
褰
褱
褳
褴
褵
褷
褸
褹
褺
褼
褽
褾
褿
襀
襂
襃
襅
襆
襇
襈
襉
襊
襋
襌
襍
襎
襏
襐
襑
襒
襓
襔
襕
襖
襗
襘
襙
襚
襛
襜
襝
襞
襡
襢
襣
襤
襥
襦
襧
襨
襩
襫
襭
襮
襰
襱
襳
襴
襵
襶
襷
襸
襹
襺
襻
襼
襽
襾
覀
覂
覄
覅
覈
覉
覊
覌
覍
覎
覐
覑
覒
覔
覕
覗
覘
覙
覛
覜
覝
覞
覟
覠
覡
覢
覣
覤
覥
覨
覩
覫
覭
覮
覯
覰
覱
覲
覴
覵
覶
覸
覹
覻
覼
覾
覿
觃
觇
觋
觌
觍
觏
觓
觔
觕
觖
觗
觘
觙
觚
觛
觜
觝
觟
觠
觡
觢
觤
觧
觨
觩
觪
觫
觬
觭
觮
觯
觰
觱
觲
觳
觴
觵
觶
觷
觹
觺
觻
觼
觽
觾
觿
訁
訃
訄
訅
訆
訇
訉
訋
訌
訍
訏
訐
訑
訒
訔
訙
訚
訜
訞
訠
訡
訢
訤
訦
訧
訨
訩
訫
訬
訮
訯
訰
訲
訵
訷
訸
訹
訽
訾
訿
詀
詁
詂
詃
詄
詅
詇
詈
詉
詊
詋
詌
詍
詎
詏
詑
詒
詓
詖
詗
詘
詙
詚
詜
詝
詟
詤
詥
詧
詨
詪
詯
詴
詵
詶
詷
詸
詺
詻
詽
詾
詿
誀
誁
誂
誃
誄
誆
誈
誊
誋
誎
誏
誐
誑
誒
誔
誖
誗
誙
誚
誛
誜
誝
誟
誢
誧
誩
誫
誮
誯
誱
誳
誴
誵
誶
誷
誸
誺
誻
誽
誾
諀
諁
諂
諃
諅
諆
諈
諉
諊
諌
諍
諎
諐
諑
諓
諔
諕
諘
諙
諚
諛
諝
諞
諟
諠
諢
諣
諤
諥
諨
諩
諪
諬
諯
諰
諲
諴
諵
諶
諹
諻
諼
諽
諿
謃
謅
謆
謇
謈
謉
謋
謌
謍
謏
謑
謒
謓
謕
謖
謘
謚
謜
謞
謟
謡
謢
謣
謤
謥
謦
謧
謩
謪
謫
謭
謮
謯
謰
謱
謲
謳
謴
謵
謶
謷
謸
謺
謻
謼
謽
謿
譀
譂
譃
譄
譅
譆
譇
譈
譊
譋
譌
譍
譐
譑
譒
譓
譔
譕
譖
譗
譛
譝
譞
譟
譠
譡
譢
譣
譤
譥
譧
譨
譩
譪
譫
譭
譮
譱
譳
譵
譶
譸
譹
譺
譻
譼
譾
譿
讁
讂
讃
讄
讅
讆
讇
讈
讉
讋
讌
讍
讎
讏
讐
讑
讒
讔
讕
讖
讗
讘
讙
讛
讜
讝
讟
讠
讣
讦
讬
讱
讵
讻
诂
诇
诌
诎
诐
诒
诓
诔
诖
诜
诨
诪
诮
诳
诹
诼
谂
谇
谉
谖
谝
谞
谠
谡
谫
谮
谰
谳
谵
谸
谹
谺
谻
谼
谽
谾
谿
豀
豂
豃
豄
豅
豋
豍
豏
豑
豒
豓
豕
豖
豗
豘
豙
豛
豜
豝
豞
豟
豠
豣
豤
豥
豦
豧
豨
豩
豭
豮
豯
豰
豱
豲
豳
豴
豵
豶
豷
豸
豻
豼
豽
豾
豿
貀
貁
貃
貄
貆
貇
貈
貉
貊
貋
貍
貎
貏
貐
貑
貒
貕
貖
貗
貙
貚
貛
貜
貟
貣
貤
貥
貦
貭
貮
貱
貲
貵
貹
貺
貾
賅
賆
賉
賋
賌
賍
賎
賏
賐
賒
賔
賕
賖
賗
賘
賙
賚
賛
賝
賟
賥
賧
賨
賩
賫
賮
賯
賰
賱
賲
賳
賵
賶
賷
賸
賹
賻
賾
賿
贀
贁
贂
贃
贄
贆
贇
贉
贋
贌
贎
贐
贑
贒
贔
贕
贗
贘
贙
贚
贜
贠
贳
贶
贽
赀
赆
赇
赉
赍
赑
赒
赕
赗
赙
赜
赟
赥
赨
赩
赪
赬
赮
赯
赱
赲
赸
赹
赺
赻
赼
赽
赾
赿
趀
趂
趃
趄
趆
趇
趈
趉
趌
趍
趎
趏
趐
趑
趒
趓
趔
趖
趗
趘
趚
趛
趜
趝
趞
趠
趡
趢
趤
趥
趦
趧
趩
趪
趫
趬
趭
趮
趯
趰
趱
趲
趶
趷
趹
趻
趼
趽
趿
跀
跁
跂
跅
跇
跈
跉
跊
跍
跏
跐
跒
跓
跔
跕
跗
跘
跙
跜
跞
跠
跢
跣
跥
跦
跧
跫
跬
跭
跮
跰
跱
跲
跴
跶
跸
跼
跽
跾
跿
踀
踁
踂
踃
踄
踅
踆
踇
踈
踋
踍
踎
踑
踒
踓
踔
踕
踖
踗
踘
踙
踚
踛
踜
踠
踡
踣
踤
踥
踦
踧
踨
踫
踬
踭
踯
踰
踲
踳
踶
踷
踸
踺
踻
踼
踽
踾
踿
蹀
蹁
蹃
蹅
蹆
蹌
蹍
蹎
蹏
蹐
蹓
蹔
蹕
蹖
蹗
蹘
蹚
蹛
蹜
蹝
蹞
蹠
蹡
蹢
蹥
蹧
蹨
蹪
蹫
蹮
蹯
蹰
蹱
蹳
蹵
蹷
蹸
蹹
蹻
蹽
蹾
躀
躂
躃
躄
躅
躆
躈
躌
躎
躐
躑
躒
躓
躔
躕
躖
躗
躘
躙
躚
躛
躜
躝
躞
躟
躠
躡
躢
躣
躤
躥
躦
躧
躨
躩
躭
躮
躰
躱
躳
躴
躵
躶
躷
躸
躹
躻
躼
躽
躾
躿
軁
軂
軃
軄
軅
軆
軇
軈
軉
軎
軏
軐
軑
軓
軔
軕
軖
軗
軘
軙
軚
軛
軜
軝
軞
軠
軡
軣
軤
軥
軦
軧
軨
軩
軪
軫
軬
軭
軮
軯
軰
軱
軲
軳
軴
軵
軶
軷
軹
軺
軻
軿
輀
輁
輂
輄
輅
輆
輇
輈
輊
輋
輌
輍
輎
輏
輐
輑
輖
輗
輘
輙
輚
輜
輞
輠
輡
輢
輣
輤
輥
輦
輧
輨
輫
輬
輭
輮
輰
輱
輲
輳
輴
輵
輶
輷
輹
輺
輼
輽
轀
轁
轂
轃
轇
轈
轊
轋
轌
轏
轐
轑
轒
轓
轔
轕
轖
轗
轘
轙
轚
轛
轜
轝
轞
轠
轡
轢
轣
轤
轥
轪
轫
轱
轳
轵
轷
轸
轹
轺
轾
辀
辁
辂
辋
辌
辎
辏
辒
辔
辚
辝
辠
辡
辢
辤
辥
辧
辪
辬
辳
辴
辵
辶
辷
辸
辿
迀
迃
迆
迉
迊
迋
迌
迍
迏
迒
迓
迕
迖
迗
迚
迠
迡
迣
迧
迨
迬
迮
迯
迱
迲
迳
迵
迶
迻
迼
迾
迿
逄
逇
逈
逋
逌
逎
逑
逓
逖
逘
逜
逡
逤
逥
逦
逧
逨
逩
逪
逫
逬
逭
逯
逰
逳
逴
逷
逹
逺
逽
逿
遀
遃
遄
遆
遈
遉
遌
遖
遘
遚
遝
遟
遡
遤
遦
遧
遪
遫
遬
遯
遰
遱
遳
遹
遻
遾
邅
邆
邉
邌
邍
邎
邐
邒
邔
邖
邗
邘
邙
邚
邜
邞
邟
邠
邡
邤
邥
邧
邩
邫
邭
邲
邴
邶
邷
邼
邽
邾
邿
郀
郂
郃
郄
郆
郇
郈
郉
郋
郌
郍
郏
郐
郒
郓
郔
郕
郖
郗
郘
郙
郚
郛
郞
郟
郠
郣
郥
郩
郪
郬
郮
郯
郰
郱
郲
郳
郶
郹
郺
郻
郼
郾
郿
鄀
鄁
鄃
鄄
鄅
鄆
鄇
鄈
鄊
鄋
鄌
鄍
鄎
鄏
鄐
鄑
鄓
鄕
鄖
鄗
鄘
鄚
鄛
鄜
鄝
鄟
鄠
鄡
鄣
鄤
鄥
鄦
鄨
鄩
鄪
鄫
鄬
鄮
鄯
鄳
鄴
鄵
鄶
鄷
鄸
鄹
鄻
鄼
鄽
鄾
鄿
酀
酁
酂
酃
酄
酅
酆
酇
酈
酎
酏
酑
酓
酔
酕
酖
酘
酙
酛
酜
酞
酟
酠
酡
酤
酦
酧
酨
酫
酭
酲
酳
酴
酹
酺
酻
酼
酽
酾
醀
醁
醂
醄
醅
醆
醈
醊
醌
醎
醏
醑
醓
醔
醕
醖
醗
醘
醙
醝
醟
醠
醡
醢
醤
醥
醦
醧
醨
醩
醭
醰
醱
醲
醳
醵
醶
醷
醸
醹
醻
醼
醽
醾
醿
釂
釃
釄
釅
釆
釈
釒
釓
釔
釕
釖
釙
釚
釛
釞
釟
釠
釡
釢
釤
釥
釨
釩
釪
釫
釬
釭
釮
釯
釰
釱
釲
釳
釴
釶
釷
釸
釹
釺
釻
釼
釽
釾
釿
鈁
鈂
鈃
鈄
鈅
鈆
鈇
鈈
鈊
鈋
鈌
鈏
鈐
鈑
鈒
鈓
鈖
鈗
鈘
鈙
鈚
鈛
鈜
鈝
鈟
鈠
鈡
鈢
鈤
鈥
鈧
鈨
鈩
鈫
鈬
鈭
鈮
鈯
鈰
鈱
鈲
鈳
鈵
鈶
鈷
鈸
鈹
鈻
鈼
鈽
鈿
鉁
鉂
鉃
鉆
鉇
鉈
鉊
鉋
鉌
鉍
鉎
鉏
鉐
鉒
鉓
鉔
鉕
鉖
鉘
鉙
鉜
鉝
鉞
鉟
鉠
鉡
鉢
鉣
鉥
鉦
鉧
鉨
鉩
鉪
鉫
鉬
鉭
鉮
鉯
鉰
鉱
鉲
鉳
鉵
鉶
鉷
鉸
鉹
鉺
鉼
鉽
鉾
鉿
銁
銂
銄
銆
銇
銈
銉
銊
銋
銌
銍
銎
銏
銐
銒
銔
銕
銗
銙
銚
銛
銝
銞
銟
銠
銡
銢
銣
銤
銥
銦
銧
銨
銩
銪
銫
銯
銰
銱
銲
銴
銵
銶
銸
銺
銻
銼
銽
銾
銿
鋀
鋂
鋃
鋄
鋆
鋇
鋈
鋉
鋊
鋋
鋌
鋍
鋎
鋏
鋐
鋑
鋓
鋔
鋕
鋖
鋗
鋘
鋙
鋚
鋛
鋜
鋝
鋞
鋟
鋠
鋡
鋢
鋣
鋥
鋦
鋧
鋨
鋩
鋫
鋬
鋭
鋮
鋯
鋱
鋲
鋳
鋴
鋵
鋶
鋷
鋹
鋺
鋻
鋽
鋾
鋿
錀
錁
錂
錃
錅
錆
錇
錈
錉
錊
錋
錌
錍
錎
錏
錑
錒
錓
錔
錕
錖
錗
錙
錛
錜
錝
錞
錟
錡
錣
錤
錥
錧
錩
錪
錬
錭
錰
錱
錴
錵
錷
錸
錹
錺
錻
錼
錽
錾
錿
鍀
鍁
鍂
鍃
鍄
鍅
鍆
鍇
鍈
鍉
鍌
鍎
鍏
鍐
鍑
鍒
鍓
鍔
鍕
鍖
鍗
鍘
鍙
鍚
鍜
鍝
鍞
鍟
鍠
鍡
鍢
鍣
鍤
鍦
鍧
鍨
鍩
鍪
鍫
鍬
鍭
鍮
鍯
鍱
鍲
鍳
鍴
鍶
鍷
鍸
鍹
鍻
鍼
鍽
鍿
鎀
鎁
鎃
鎄
鎅
鎆
鎇
鎈
鎉
鎋
鎍
鎎
鎐
鎑
鎒
鎓
鎕
鎘
鎙
鎛
鎜
鎝
鎞
鎟
鎠
鎡
鎢
鎣
鎤
鎥
鎦
鎨
鎩
鎪
鎫
鎭
鎯
鎰
鎱
鎲
鎴
鎵
鎶
鎷
鎸
鎹
鎺
鎻
鎼
鎽
鎾
鎿
鏀
鏁
鏂
鏃
鏄
鏅
鏆
鏇
鏉
鏊
鏋
鏌
鏍
鏎
鏏
鏐
鏑
鏒
鏓
鏔
鏕
鏙
鏚
鏛
鏜
鏝
鏠
鏣
鏥
鏦
鏧
鏨
鏩
鏪
鏫
鏬
鏭
鏮
鏯
鏰
鏱
鏲
鏳
鏴
鏵
鏶
鏷
鏸
鏹
鏺
鏻
鏼
鏾
鏿
鐀
鐁
鐂
鐃
鐄
鐅
鐆
鐇
鐈
鐉
鐊
鐋
鐌
鐍
鐎
鐏
鐐
鐑
鐒
鐓
鐔
鐕
鐖
鐗
鐙
鐚
鐛
鐜
鐝
鐞
鐟
鐠
鐡
鐢
鐣
鐤
鐥
鐦
鐧
鐨
鐩
鐪
鐫
鐬
鐭
鐯
鐰
鐱
鐴
鐶
鐷
鐹
鐻
鐼
鐽
鐾
鐿
鑀
鑁
鑂
鑃
鑅
鑆
鑇
鑈
鑉
鑋
鑌
鑍
鑎
鑏
鑐
鑓
鑔
鑕
鑖
鑗
鑘
鑙
鑚
鑛
鑜
鑝
鑞
鑟
鑠
鑡
鑢
鑤
鑥
鑦
鑧
鑨
鑩
鑪
鑬
鑭
鑮
鑯
鑱
鑳
鑴
鑵
鑶
鑷
鑸
鑹
鑺
鑻
钀
钁
钂
钃
钄
钅
钆
钇
钋
钌
钍
钐
钑
钔
钕
钖
钘
钚
钪
钫
钬
钭
钲
钶
钷
钸
钹
钽
铇
铈
铊
铋
铌
铍
铏
铑
铒
铓
铔
铕
铖
铗
铘
铙
铚
铞
铟
铥
铦
铧
铪
铫
铯
铱
铳
铴
铷
铹
铻
铼
铽
锃
锇
锊
锍
锎
锒
锓
锔
锕
锖
锗
锘
锛
锜
锝
锞
锠
锧
锨
锩
锪
锫
锬
锱
锳
锴
锶
锷
锸
锼
锽
锾
锿
镃
镄
镅
镆
镈
镊
镋
镎
镏
镒
镓
镔
镘
镙
镚
镝
镞
镟
镠
镡
镢
镤
镥
镦
镧
镨
镩
镪
镫
镬
镮
镱
镲
镴
镵
镸
镹
镺
镻
镼
镽
镾
閁
閂
閄
閅
閆
閇
閈
閊
閌
閍
閐
閕
閖
閗
閙
閚
閛
閜
閝
閞
閟
閠
閤
閦
閧
閪
閫
閬
閭
閮
閯
閰
閳
閴
閵
閶
閷
閸
閺
閼
閽
閿
闀
闁
闂
闃
闄
闅
闈
闉
闋
闎
闏
闐
闑
闒
闓
闗
闙
闚
闛
闝
闞
闟
闠
闣
闤
闥
闦
闧
闩
闬
闱
闳
闶
闼
闿
阃
阄
阊
阋
阌
阍
阏
阒
阓
阗
阘
阛
阝
阞
阠
阢
阣
阤
阥
阦
阧
阨
阩
阫
阬
阭
阯
阰
阷
阸
阹
阺
阼
阽
阾
陁
陃
陉
陊
陎
陏
陑
陒
陓
陔
陖
陗
陘
陙
陚
陜
陠
陥
陦
陧
陫
陬
陭
陮
陯
陱
陴
陹
陻
陼
陾
陿
隀
隁
隂
隃
隄
隇
隉
隌
隑
隒
隓
隖
隗
隚
隝
隞
隟
隡
隢
隤
隥
隦
隩
隫
隬
隭
隮
隯
隰
隲
隳
隵
隷
隹
隺
隿
雂
雃
雈
雊
雐
雓
雔
雗
雘
雚
雝
雟
雠
雡
雤
雥
雦
雧
雩
雫
雬
雭
雮
雱
雴
雵
雸
雺
雼
雽
雿
霂
霃
霅
霋
霌
霐
霒
霔
霕
霗
霘
霙
霚
霛
霝
霟
霠
霡
霢
霣
霤
霥
霦
霨
霩
霪
霫
霬
霮
霯
霱
霳
霴
霵
霶
霷
霺
霻
霼
霿
靀
靁
靃
靅
靆
靇
靉
靊
靋
靌
靍
靎
靏
靐
靑
靔
靕
靗
靘
靝
靟
靣
靤
靧
靨
靪
靫
靬
靭
靮
靯
靰
靱
靲
靵
靷
靸
靹
靺
靻
靽
靾
靿
鞀
鞁
鞂
鞃
鞄
鞆
鞇
鞈
鞉
鞊
鞌
鞎
鞐
鞒
鞓
鞔
鞕
鞖
鞗
鞙
鞚
鞛
鞜
鞝
鞞
鞟
鞡
鞢
鞤
鞥
鞧
鞨
鞩
鞪
鞫
鞬
鞮
鞯
鞰
鞱
鞲
鞳
鞴
鞵
鞶
鞷
鞸
鞹
鞺
鞻
鞼
鞽
鞾
鞿
韀
韁
韂
韃
韄
韅
韇
韈
韉
韊
韍
韎
韏
韐
韑
韒
韔
韕
韖
韗
韘
韙
韚
韛
韝
韞
韟
韠
韡
韢
韣
韤
韥
韨
韪
韫
韮
韯
韰
韱
韲
韴
韷
韸
韹
韺
韼
韽
韾
頀
頄
頇
頉
頊
頋
頍
頎
頏
頔
頕
頖
頙
頚
頛
頝
頞
頟
頠
頢
頣
頥
頦
頧
頨
頩
頪
頬
頮
頯
頱
頲
頳
頴
頵
頶
頺
頽
頾
頿
顀
顁
顂
顃
顄
顅
顇
顈
顉
顊
顋
顐
顑
顒
顓
顕
顖
顗
顙
顚
顜
顝
顟
顠
顡
顢
顣
顤
顥
顦
顨
顩
顪
顬
顭
顮
顰
顲
顳
顸
颀
颃
颋
颎
颏
颒
颕
颙
颟
颣
颥
颩
颪
颫
颬
颭
颮
颰
颲
颴
颵
颷
颸
颹
颺
颻
颽
颾
颿
飀
飁
飂
飃
飅
飇
飈
飉
飊
飋
飌
飍
飏
飐
飑
飔
飖
飗
飜
飝
飠
飡
飣
飤
飥
飦
飧
飫
飬
飭
飮
飰
飱
飳
飴
飵
飶
飷
飸
飹
飺
飻
飿
餀
餁
餂
餄
餆
餇
餈
餋
餍
餎
餏
餑
餔
餕
餖
餗
餙
餜
餝
餟
餠
餢
餣
餤
餥
餦
餧
餩
餪
餫
餬
餭
餯
餰
餱
餲
餳
餴
餶
餷
餸
餹
餺
餻
餼
餽
餿
饀
饁
饂
饃
饄
饆
饇
饉
饊
饎
饏
饐
饓
饔
饖
饘
饙
饚
饛
饜
饝
饟
饠
饡
饢
饣
饤
饦
饧
饩
饫
饳
饸
饹
饻
饾
馂
馃
馇
馉
馊
馌
馎
馐
馑
馓
馕
馘
馚
馛
馜
馝
馞
馟
馠
馡
馢
馣
馤
馦
馧
馩
馪
馫
馯
馰
馱
馲
馵
馶
馷
馸
馹
馺
馻
馼
馽
馾
馿
駀
駂
駃
駇
駈
駉
駊
駋
駌
駍
駎
駏
駑
駓
駔
駖
駗
駘
駙
駚
駜
駞
駟
駠
駡
駢
駣
駤
駥
駦
駧
駨
駩
駪
駫
駬
駮
駯
駰
駲
駳
駴
駵
駶
駷
駸
駹
駺
駻
駼
駽
駾
騀
騂
騃
騄
騅
騆
騇
騈
騉
騊
騋
騌
騍
騐
騑
騒
騔
騕
騖
騗
騘
騚
騛
騜
騝
騞
騟
騠
騡
騢
騣
騤
騥
騦
騧
騩
騪
騫
騬
騭
騮
騯
騱
騲
騳
騴
騵
騶
騸
騹
騺
騻
騼
騽
騾
騿
驁
驂
驃
驄
驆
驇
驈
驉
驋
驌
驎
驏
驐
驑
驓
驔
驖
驘
驙
驜
驝
驞
驠
驡
驣
驤
驦
驧
驨
驩
驪
驫
驲
驵
驺
驽
骀
骃
骉
骍
骎
骒
骓
骔
骕
骖
骘
骙
骝
骟
骢
骣
骦
骩
骪
骫
骬
骭
骮
骱
骲
骳
骴
骵
骹
骺
骻
骽
骾
骿
髀
髁
髃
髄
髆
髇
髈
髉
髊
髌
髍
髎
髐
髑
髕
髗
髙
髚
髛
髜
髝
髞
髟
髠
髡
髢
髣
髤
髥
髧
髨
髩
髫
髬
髭
髰
髱
髲
髳
髴
髵
髶
髷
髸
髹
髺
髼
髽
髾
髿
鬀
鬁
鬂
鬄
鬅
鬇
鬈
鬉
鬊
鬋
鬌
鬎
鬏
鬐
鬑
鬒
鬔
鬕
鬖
鬗
鬘
鬙
鬛
鬜
鬝
鬞
鬠
鬡
鬤
鬦
鬨
鬩
鬪
鬫
鬬
鬭
鬮
鬯
鬰
鬲
鬳
鬴
鬵
鬶
鬷
鬸
鬹
鬺
鬻
鬽
鬾
鬿
魀
魃
魆
魈
魉
魊
魋
魌
魎
魐
魑
魒
魓
魕
魖
魗
魙
魛
魜
魝
魞
魟
魠
魡
魢
魣
魤
魥
魦
魧
魨
魩
魪
魫
魬
魭
魮
魰
魱
魲
魳
魴
魵
魶
魸
魹
魺
魻
魼
魽
魾
魿
鮀
鮁
鮂
鮃
鮄
鮅
鮆
鮇
鮈
鮉
鮊
鮋
鮌
鮍
鮎
鮏
鮐
鮒
鮓
鮔
鮕
鮖
鮗
鮘
鮙
鮚
鮛
鮜
鮝
鮞
鮟
鮠
鮡
鮢
鮣
鮤
鮥
鮦
鮧
鮩
鮫
鮬
鮯
鮰
鮱
鮲
鮳
鮴
鮵
鮶
鮷
鮸
鮹
鮺
鮻
鮼
鮽
鮾
鮿
鯀
鯁
鯂
鯃
鯄
鯅
鯆
鯇
鯈
鯋
鯌
鯍
鯎
鯏
鯐
鯑
鯒
鯓
鯔
鯕
鯗
鯘
鯙
鯚
鯜
鯝
鯞
鯟
鯠
鯡
鯢
鯣
鯤
鯥
鯦
鯧
鯩
鯪
鯫
鯬
鯭
鯮
鯯
鯱
鯲
鯳
鯴
鯵
鯶
鯷
鯸
鯹
鯺
鯻
鯼
鯾
鯿
鰀
鰁
鰂
鰃
鰄
鰅
鰆
鰇
鰈
鰉
鰊
鰋
鰌
鰎
鰏
鰐
鰑
鰒
鰔
鰕
鰖
鰗
鰘
鰙
鰚
鰛
鰜
鰝
鰞
鰟
鰠
鰡
鰢
鰣
鰤
鰥
鰦
鰧
鰨
鰩
鰪
鰫
鰬
鰮
鰯
鰰
鰱
鰳
鰴
鰵
鰶
鰷
鰸
鰹
鰺
鰼
鰽
鰿
鱀
鱁
鱂
鱃
鱄
鱅
鱆
鱇
鱊
鱋
鱌
鱍
鱎
鱏
鱐
鱑
鱒
鱓
鱕
鱖
鱘
鱙
鱚
鱛
鱜
鱝
鱞
鱟
鱠
鱡
鱢
鱣
鱤
鱥
鱦
鱧
鱨
鱩
鱪
鱫
鱬
鱭
鱮
鱯
鱰
鱱
鱲
鱳
鱴
鱵
鱶
鱹
鱺
鱻
鱽
鱾
鲀
鲂
鲃
鲄
鲅
鲆
鲇
鲉
鲊
鲋
鲌
鲎
鲏
鲐
鲒
鲓
鲔
鲕
鲖
鲗
鲘
鲙
鲚
鲝
鲞
鲠
鲡
鲣
鲥
鲦
鲧
鲩
鲪
鲬
鲭
鲮
鲯
鲰
鲳
鲴
鲵
鲹
鲺
鲻
鲼
鲽
鲾
鲿
鳀
鳁
鳂
鳆
鳇
鳈
鳉
鳊
鳋
鳎
鳏
鳐
鳑
鳒
鳓
鳔
鳘
鳙
鳚
鳛
鳜
鳟
鳠
鳡
鳢
鳣
鳤
鳦
鳧
鳨
鳪
鳫
鳬
鳭
鳮
鳯
鳰
鳱
鳲
鳵
鳷
鳸
鳹
鳺
鳻
鳼
鳽
鳾
鳿
鴀
鴁
鴂
鴃
鴄
鴅
鴆
鴇
鴈
鴊
鴋
鴌
鴍
鴎
鴏
鴐
鴑
鴒
鴓
鴔
鴖
鴗
鴘
鴙
鴚
鴜
鴝
鴞
鴟
鴠
鴡
鴢
鴣
鴤
鴥
鴧
鴩
鴪
鴫
鴬
鴭
鴮
鴯
鴰
鴱
鴲
鴳
鴴
鴵
鴶
鴷
鴸
鴹
鴺
鴼
鴽
鴾
鵀
鵁
鵂
鵃
鵄
鵅
鵆
鵇
鵈
鵉
鵊
鵋
鵌
鵍
鵎
鵏
鵐
鵒
鵓
鵔
鵕
鵖
鵗
鵘
鵙
鵚
鵛
鵞
鵟
鵠
鵢
鵣
鵤
鵥
鵦
鵧
鵨
鵩
鵪
鵫
鵭
鵮
鵯
鵱
鵳
鵴
鵵
鵶
鵷
鵸
鵹
鵺
鵻
鵼
鵽
鵾
鵿
鶀
鶁
鶂
鶃
鶄
鶅
鶆
鶇
鶈
鶉
鶊
鶋
鶌
鶍
鶎
鶏
鶐
鶑
鶒
鶓
鶔
鶕
鶖
鶗
鶙
鶚
鶛
鶜
鶝
鶞
鶟
鶠
鶡
鶢
鶣
鶤
鶥
鶦
鶧
鶨
鶪
鶫
鶬
鶭
鶮
鶰
鶱
鶲
鶳
鶵
鶶
鶷
鶸
鶹
鶺
鶻
鶼
鶽
鶾
鶿
鷀
鷁
鷂
鷃
鷄
鷅
鷆
鷇
鷈
鷉
鷊
鷋
鷌
鷍
鷎
鷏
鷐
鷑
鷒
鷓
鷔
鷕
鷖
鷘
鷙
鷚
鷛
鷜
鷝
鷞
鷟
鷠
鷡
鷢
鷣
鷤
鷥
鷦
鷧
鷨
鷩
鷪
鷫
鷬
鷭
鷮
鷯
鷰
鷱
鷳
鷴
鷵
鷶
鷷
鷸
鷻
鷼
鷽
鷾
鷿
鸀
鸁
鸂
鸃
鸄
鸅
鸆
鸇
鸈
鸉
鸊
鸋
鸌
鸍
鸎
鸏
鸐
鸑
鸒
鸓
鸔
鸕
鸖
鸗
鸘
鸙
鸛
鸜
鸝
鸤
鸧
鸩
鸫
鸬
鸮
鸰
鸱
鸲
鸴
鸶
鸷
鸸
鸹
鸺
鸻
鸼
鹀
鹁
鹆
鹇
鹋
鹍
鹎
鹐
鹒
鹓
鹔
鹖
鹗
鹙
鹚
鹛
鹝
鹟
鹠
鹡
鹢
鹣
鹥
鹨
鹩
鹪
鹬
鹮
鹯
鹱
鹲
鹴
鹶
鹷
鹸
鹺
鹻
鹾
麀
麁
麃
麄
麅
麆
麇
麈
麉
麊
麌
麍
麎
麏
麐
麑
麔
麕
麖
麘
麙
麚
麛
麜
麞
麠
麡
麢
麣
麤
麧
麨
麪
麫
麬
麭
麮
麯
麰
麱
麲
麳
麶
麷
麹
麿
黀
黁
黂
黅
黆
黇
黈
黉
黊
黋
黌
黐
黓
黕
黖
黗
黙
黚
黟
黡
黢
黣
黤
黥
黦
黧
黩
黪
黫
黬
黭
黮
黰
黱
黲
黳
黵
黶
黷
黸
黹
黺
黻
黼
黽
黾
黿
鼀
鼁
鼂
鼃
鼄
鼅
鼆
鼇
鼈
鼉
鼊
鼌
鼍
鼏
鼑
鼒
鼔
鼕
鼖
鼗
鼘
鼙
鼚
鼛
鼜
鼝
鼞
鼟
鼡
鼢
鼣
鼤
鼥
鼦
鼧
鼨
鼩
鼪
鼫
鼭
鼮
鼯
鼰
鼱
鼲
鼳
鼴
鼵
鼶
鼷
鼸
鼺
鼼
鼽
鼿
齀
齂
齃
齄
齅
齆
齇
齈
齉
齌
齍
齎
齏
齑
齓
齔
齕
齖
齗
齘
齙
齚
齛
齜
齝
齞
齟
齠
齤
齥
齧
齨
齩
齪
齫
齬
齭
齮
齯
齰
齱
齲
齳
齴
齵
齶
齷
齸
齹
齺
齻
齼
齽
齾
龀
龁
龂
龃
龆
龇
龉
龎
龏
龑
龒
龓
龖
龗
龘
龝
龞
龠
龡
龢
龣
龤
龥
#
##s
##0
##a
##2
##1
##3
##e
##8
##5
##6
##4
##9
##7
##t
##o
##d
##i
##n
##m
##c
##l
##y
##r
##g
##p
##f
##er
##k
##h
##b
##x
##u
##w
##ing
##on
##v
##の
##an
##z
##か
##le
##in
##mm
##00
##ng
##を
##us
##に
##te
##ed
##10
##て
##al
##ic
##は
##℃
##ia
##と
##q
##ce
##en
##is
##ra
##es
##j
##cm
##お
##ne
##re
##tion
##2017
##ch
##or
##na
##ta
##2016
##ll
##20
##ie
##ma
##17
##ion
##th
##st
##se
##et
##ck
##も
##ly
##ge
##ry
##11
##12
##ter
##ar
##la
##os
##30
##el
##50
##ml
##る
##at
##ン
##man
##ル
##15
##it
##てす
##me
##り
##de
##nt
##mb
##16
##ve
##da
##い
##ps
##to
##son
##ke
##80
##88
##um
##ス
##こ
##ない
##ss
##ー
##０
##as
##60
##co
##go
##90
##2015
##id
##ey
##sa
##ro
##am
##no
##sh
##ki
##のて
##pe
##ine
##mi
##ton
##ment
##ld
##li
##rs
##ri
##rd
##ます
##®
##21
##io
##99
##40
##ty
##18
##★
##01
##ba
##ga
##13
##ny
##24
##22
##by
##ur
##hz
##ang
##ka
##～
##ad
##016
##32
##017
##tor
##kg
##rt
##14
##ct
##ts
##°
##ns
##な
##ao
##ら
##し
##nd
##70
##ya
##il
##25
##23
##ian
##ers
##26
##day
##ay
##line
##く
##す
##be
##dy
##ies
##ha
##ot
##va
##mo
##land
##ation
##pa
##ol
##ue
##31
##ト
##ca
##om
##ure
##ん
##き
##19
##bo
##100
##way
##から
##ko
##do
##un
##ni
##28
##up
##06
##ds
##48
##015
##35
##ee
##た
##ive
##cc
##ました
##ble
##ity
##ex
##ler
##ap
##book
##ice
##km
##mg
##ms
##29
##cy
##view
##lo
##ね
##５
##oo
##02
##net
##ls
##ii
##05
##33
##box
##２
##ley
##ent
##les
##１
##said
##55
##2014
##66
##ber
##ner
##77
##der
##hi
##27
##ir
##61
##う
##ai
##ver
##ron
##☆
##ster
##sk
##ft
##ート
##ti
##my
##ker
##one
##2013
##ow
##lin
##ip
##ics
##ません
##●
##45
##03
##ff
##47
##nce
##per
##って
##ock
##bs
##ah
##lv
##mp
##000
##３
##au
##71
##04
##95
##age
##68
##ting
##ung
##ction
##db
##07
##ore
##op
##78
##38
##ong
##73
##08
##ica
##36
##wa
##７
##や
##64
##85
##れは
##tv
##di
##９
##くたさい
##♥
##ier
##si
##75
##います
##ok
##ット
##った
##ut
##vi
##ac
##ラ
##98
##51
##86
##™
##fs
##れ
##sion
##ム
##６
##tt
##㎡
##lt
##42
##bc
##ック
##rry
##ted
##rn
##t00
##ンク
##58
##09
##34
##ui
##ary
##pm
##41
##za
##2012
##ger
##62
##44
##します
##ｍ
##hd
##od
##53
##81
##ina
##いる
##ix
##65
##91
##ana
##46
##ji
##み
##ard
##ain
##ze
##bi
##56
##39
##port
##nm
##dia
##あり
##52
##and
##im
##63
##して
##フ
##ei
##69
##po
##89
##bit
##out
##zz
##97
##67
##８
##96
##tes
##ast
##ール
##ling
##よ
##ory
##ical
##43
##cn
##した
##87
##ys
##oc
##2011
##lly
##ks
##♪
##board
##37
##lan
##que
##ua
##com
##４
##54
##ren
##via
##72
##79
##tch
##49
##ial
##nn
##イ
##xx
##ser
##け
##ist
##art
##lm
##ek
##ning
##if
##ite
##84
##2010
##ku
##ux
##hs
##ide
##ins
##ight
##83
##fe
##×
##ho
##のか
##lla
##pp
##ec
##rm
##ham
##92
##ell
##82
##able
##ctor
##76
##ク
##59
##light
##han
##57
##ise
##tions
##shi
##ram
##pi
##well
##hu
##gb
##93
##ef
##uan
##plus
##res
##ess
##ate
##ese
##ci
##bet
##nk
##ute
##fc
##www
##94
##ght
##gs
##ile
##wood
##uo
##em
##king
##tive
##74
##ox
##zy
##red
##ium
##lf
##リ
##ding
##500
##tic
##マ
##cs
##ある
##che
##ire
##gy
##ult
##カ
##ま
##つ
##fa
##mer
##time
##tte
##ア
##おります
##123
##tra
##ては
##ern
##｜
##ous
##int
##car
##our
##ant
##ｄ
##jo
##する
##2000
##min
##ino
##ris
##ud
##set
##her
##ou
##ませんか
##fi
##ill
##ick
##av
##ᆫ
##dd
##mark
##００
##▲
##ash
##ome
##ak
##200
##lle
##watch
##und
##tal
##less
##rl
##mhz
##house
##key
##ｏ
##001
##hy
##web
##2009
##gg
##wan
##°c
##val
##ons
##ance
##ち
##so
##ーム
##he
##rp
##ake
##800
##link
##hp
##eng
##style
##ント
##gi
##ray
##max
##pc
##ッフ
##ace
##berg
##news
##いて
##all
##rus
##888
##works
##→
##め
##ja
##ロ
##ea
##top
##ness
##lu
##ul
##のは
##ａ
##けと
##ean
##300
##gle
##back
##tan
##nes
##イン
##zi
##las
##oe
##sd
##bot
##world
##zo
##vr
##list
##ort
##なら
##lon
##tc
##of
##bus
##gen
##コ
##lie
##ria
##coin
##bt
##カー
##ook
##よう
##sy
##word
##より
##ther
##xi
##チ
##sc
##bb
##tar
##のお
##ky
##yo
##ara
##aa
##rc
##tz
##ston
##eo
##ade
##win
##ura
##den
##ita
##sm
##use
##ode
##fo
##▼
##❤
##hone
##れる
##ことか
##ology
##con
##ford
##joy
##kb
##こさいます
##rade
##ach
##ful
##ase
##star
##○
##are
##mc
##ella
##ため
##read
##ison
##vm
##play
##cer
##yu
##ings
##lia
##cd
##600
##tus
##rial
##life
##ae
##rk
##wang
##sp
##ving
##その
##ヒ
##lton
##ple
##cal
##んな
##sen
##ville
##ius
##mah
##なく
##tin
##ws
##360
##ru
##には
##est
##レ
##ツ
##dm
##365
##mon
##eam
##ments
##ik
##kw
##bin
##ata
##せ
##vin
##tu
##ula
##∥
##ろ
##ature
##シ
##っと
##ran
##home
##ral
##force
##ini
##bert
##nder
##mber
##◆
##sis
##ence
##ω
##nc
##ても
##name
##イト
##ncy
##nie
##ye
##oid
##chi
##いた
##1000
##orm
##rf
##ware
##リー
##pro
##era
##ub
##2008
##zen
##hr
##ーシ
##ヶ
##row
##ish
##スト
##lot
##ane
##tina
##vel
##900
##メ
##ene
##cker
##2007
##px
##fork
##gan
##zon
##qq
##google
##ism
##zer
##labels
##md
##ico
##new
##here
##ual
##vice
##wer
##ｃ
##れた
##mll
##uk
##ミ
##ming
##3d
##あります
##vo
##led
##580
##ax
##ert
##～6
##lr
##ナ
##hing
##chat
##ｓ
##たい
##ule
##ｅ
##pad
##ring
##まて
##city
##ｐ
##mann
##cl
##vd
##ping
##rge
##lk
##ましょう
##ney
##ular
##400
##tter
##ありません
##tm
##yan
##そ
##let
##キ
##ᅵ
##pt
##berry
##ew
##ション
##wn
##og
##code
##rid
##cket
##anonymoussaid
##ag
##ame
##gc
##■
##lis
##gin
##cher
##tis
##rant
##↑
##ース
##ats
##ven
##ように
##ター
##dn
##ano
##urt
##rent
##wen
##ect
##chel
##フト
##cat
##さん
##blog
##yn
##tp
##rmb
##ような
##しい
##field
##reen
##ors
##ju
##air
##map
##wo
##get
##base
##ood
##aw
##ail
##ᅡ
##een
##gp
##eg
##ose
##ories
##shop
##ᆼ
##sta
##～10
##yer
##ube
##wi
##low
##fer
##750
##media
##ハー
##san
##bank
##ｋ
##nge
##mail
##lp
##ールを
##nse
##и
##stry
##なたの
##zone
##ab
##タ
##rner
##care
##pu
##yi
##bar
##xy
##ery
##share
##ob
##ball
##hk
##cp
##rie
##ona
##sl
##lex
##rum
##やり
##ale
##atic
##erson
##ql
##ves
##type
##この
##てきます
##168
##mix
##bian
##lc
##hc
##ration
##mit
##nch
##o2
##point
##http
##ury
##ink
##logy
##js
##shot
##tb
##こと
##tics
##lus
##ama
##ions
##lls
##down
##ress
##kv
##ark
##ans
##tty
##bee
##ari
##verse
##ことて
##tton
##ｇ
##ties
##llow
##du
##rth
##lar
##des
##cky
##kit
##ime
##009
##fun
##ンター
##ひ
##ッセーシを
##vis
##cture
##をお
##オ
##くれる
##tta
##tel
##lock
##app
##right
##＋
##cent
##its
##asia
##てすか
##tti
##tle
##ller
##ken
##more
##boy
##dom
##ider
##なります
##unch
##かった
##put
##gh
##tr
##n1
##tags
##nus
##а
##へ
##town
##ique
##body
##erry
##the
##013
##mic
##tro
##alk
##nity
##いました
##oa
##tf
##ack
##ded
##sco
##014
##rite
##ada
##now
##ndy
##◎
##ika
##xp
##bu
##rman
##gm
##fig
##ります
##tto
##gl
##len
##pper
##a1
##てきる
##ロク
##ition
##ference
##ig
##mond
##cation
##pr
##999
##over
##おり
##ith
##su
##いるのて
##llo
##qi
##admin
##ora
##log
##ces
##ume
##oper
##af
##─
##ound
##cg
##site
##iko
##ath
##hip
##rey
##cks
##dp
##mw
##キンク
##ations
##vs
##flow
##late
##nter
##ever
##lab
##nger
##cing
##nap
##ens
##700
##bra
##かり
##ign
##oto
##かる
##test
##urs
##ich
##480
##dr
##lina
##ｒ
##die
##try
##ader
##なり
##chen
##ᆯ
##ten
##ough
##hen
##cus
##py
##ward
##ep
##サイト
##cle
##ree
##ctive
##ool
##＞
##ira
##163
##ez
##card
##cha
##さ
##end
##ala
##え
##tail
##ょう
##ries
##なる
##ved
##ways
##wd
##ond
##tom
##ov
##fl
##pd
##gate
##²
##sky
##ture
##ape
##なと
##101
##load
##ream
##post
##we
##ike
##ould
##ious
##gar
##れます
##ggle
##ric
##own
##side
##other
##ける
##tech
##ator
##ged
##ｔ
##fit
##みませんか
##ily
##hn
##cil
##cel
##ize
##aid
##data
##head
##sun
##mar
##すか
##lic
##text
##page
##rris
##ket
##っています
##hai
##hl
##sent
##ug
##men
##lution
##tional
##vy
##れている
##dget
##ein
##～5
##uel
##ument
##hang
##sue
##ndi
##cept
##ste
##tag
##west
##live
##rap
##とは
##tone
##テ
##ass
##010
##tical
##m2
##mn
##core
##may
##2c
##ope
##わ
##なから
##rain
##ement
##シャンルの
##ᆨ
##tier
##vic
##│
##lay
##uck
##hop
##ｎ
##ear
##fly
##ship
##リア
##iel
##ude
##ena
##ナー
##thing
##ters
##kin
##vertisement
##ien
##dge
##tant
##twitter
##3c
##れて
##ｌ
##012
##150
##fu
##iner
##ラン
##uce
##ev
##きました
##file
##rio
##hat
##lio
##abc
##vc
##～20
##rity
##ost
##fet
##ンス
##＝
##come
##んて
##beth
##なった
##aft
##don
##khz
##face
##mate
##jing
##mand
##gn
##mmy
##pmlast
##wu
##かあります
##あ
##340
##bel
##dio
##ht
##ivity
##ｙ
##isa
##lter
##cts
##テル
##act
##room
##ets
##hg
##けて
##ータ
##raph
##ils
##host
##bon
##tsu
##ことを
##ject
##vas
##firm
##wf
##nor
##space
##dc
##120
##sol
##ために
##nsis
##sio
##ym
##bor
##～8
##wt
##めて
##tw
##oka
##rss
##work
##atus
##times
##ather
##cord
##eep
##pan
##press
##ーション
##tl
##ull
##wei
##rip
##nis
##をこ
##にお
##oon
##bug
##cms
##dar
##oh
##nba
##count
##url
##ging
##ｉ
##cia
##という
##のてす
##tation
##mini
##mporary
##ering
##next
##mbps
##gas
##ift
##dot
##ィ
##～17
##りの
##ros
##eet
##ible
##↓
##aka
##ｖ
##lor
##011
##iu
##～1
##gt
##burg
##iki
##rex
##cam
##you
##lee
##itor
##xt
##nan
##ann
##ph
##rcle
##nic
##nar
##とう
##rian
##table
##しています
##sn
##0mm
##jia
##ques
##onsored
##x2
##きます
##v4
##tein
##stack
##ads
##baby
##110
##lone
##uid
##ave
##470
##oy
##なりました
##talk
##eme
##a5
##lace
##covery
##r3
##ners
##rea
##aine
##ision
##sia
##bow
##love
##pl
##uy
##oi
##rr
##mple
##sson
##ーシてす
##nts
##uard
##bia
##tory
##hia
##～3
##sit
##walk
##xure
##pact
##250
##walker
##can
##サー
##hoo
##ｂ
##yy
##iti
##bbs
##ニア
##ola
##bre
##pus
##rder
##ぁ
##nia
##ugh
##orage
##ush
##bat
##dt
##2d
##gio
##lax
##～7
##moon
##ェ
##イフ
##kk
##レス
##lux
##rdon
##x5
##als
##ida
##ちの
##nda
##posted
##mine
##skip
##form
##ssion
##tee
##jie
##night
##ppy
##█
##eh
##rence
##lvin
##trix
##n2
##uch
##dra
##sse
##urn
##lmer
##160
##f2016
##sha
##あなたに
##きた
##ュー
##vg
##nos
##rail
##dium
##ろう
##stone
##np
##ias
##dk
##xxx
##のに
##cake
##ification
##ｑ
##nel
##icon
##₂
##bby
##ハ
##ust
##ティー
##007
##fw
##ての
##xon
##ses
##dragon
##へて
##ere
##nne
##oud
##a2
##graphy
##ちゃん
##rtex
##てお
##gma
##ホ
##ウ
##ito
##lling
##jun
##facebook
##tos
##stin
##shine
##mu
##たけて
##gence
##っ
##zzi
##tore
##ead
##osa
##jiang
##ちは
##ーク
##lam
##nix
##sday
##よって
##master
##zl
##ーン
##ルフ
##itz
##2f
##food
##lent
##stro
##lts
##bscribe
##かも
##tment
##pn
##я
##いい
##ague
##deo
##nnis
##ᅩ
##ette
##pop
##←
##◆◆
##cast
##ews
##stle
##ima
##r4
##desk
##クok
##ald
##van
##ｘ
##jy
##lines
##mes
##self
##note
##ことかてきます
##との
##ova
##wing
##ますのて
##hua
##rect
##unge
##0m
##かな
##uma
##kins
##zu
##price
##med
##mus
##group
##hin
##iginal
##oz
##public
##sch
##dden
##bell
##drive
##rmin
##１０
##370
##fx
##cm～
##nome
##ctionary
##oman
##lish
##cr
##hm
##how
##uc
##3000
##urg
##cca
##uality
##また
##ett
##ani
##tax
##rma
##jin
##dical
##lli
##last
##dan
##rame
##oot
##hur
##ground
##getrelax
##ince
##bay
##5s
##イス
##pass
##rix
##とても
##ello
##eting
##mobile
##のてすか
##ience
##ified
##nny
##520
##fr
##lean
##pin
##rin
##bility
##baru
##gion
##tors
##ernel
##mv
##bike
##©
##ager
##del
##pods
##free
##tings
##rley
##copyright
##mma
##anda
##コメント
##ルハイト
##mall
##gnet
##クセス
##┅
##dog
##!
##"
###
##$
##%
##&
##'
##(
##)
##*
##+
##,
##-
##.
##/
##:
##;
##<
##=
##>
##?
##@
##[
##\
##]
##^
##_
##{
##|
##}
##~
##£
##¤
##¥
##§
##«
##±
##³
##µ
##·
##¹
##º
##»
##¼
##ß
##æ
##÷
##ø
##đ
##ŋ
##ɔ
##ə
##ɡ
##ʰ
##ˇ
##ˈ
##ˊ
##ˋ
##ˍ
##ː
##˙
##˚
##ˢ
##α
##β
##γ
##δ
##ε
##η
##θ
##ι
##κ
##λ
##μ
##ν
##ο
##π
##ρ
##ς
##σ
##τ
##υ
##φ
##χ
##ψ
##б
##в
##г
##д
##е
##ж
##з
##к
##л
##м
##н
##о
##п
##р
##с
##т
##у
##ф
##х
##ц
##ч
##ш
##ы
##ь
##і
##ا
##ب
##ة
##ت
##د
##ر
##س
##ع
##ل
##م
##ن
##ه
##و
##ي
##۩
##ก
##ง
##น
##ม
##ย
##ร
##อ
##า
##เ
##๑
##་
##ღ
##ᄀ
##ᄁ
##ᄂ
##ᄃ
##ᄅ
##ᄆ
##ᄇ
##ᄈ
##ᄉ
##ᄋ
##ᄌ
##ᄎ
##ᄏ
##ᄐ
##ᄑ
##ᄒ
##ᅢ
##ᅣ
##ᅥ
##ᅦ
##ᅧ
##ᅨ
##ᅪ
##ᅬ
##ᅭ
##ᅮ
##ᅯ
##ᅲ
##ᅳ
##ᅴ
##ᆷ
##ᆸ
##ᆺ
##ᆻ
##ᗜ
##ᵃ
##ᵉ
##ᵍ
##ᵏ
##ᵐ
##ᵒ
##ᵘ
##‖
##„
##†
##•
##‥
##‧
##
##‰
##′
##″
##‹
##›
##※
##‿
##⁄
##ⁱ
##⁺
##ⁿ
##₁
##₃
##₄
##€
##№
##ⅰ
##ⅱ
##ⅲ
##ⅳ
##ⅴ
##↔
##↗
##↘
##⇒
##∀
##−
##∕
##∙
##√
##∞
##∟
##∠
##∣
##∩
##∮
##∶
##∼
##∽
##≈
##≒
##≡
##≤
##≥
##≦
##≧
##≪
##≫
##⊙
##⋅
##⋈
##⋯
##⌒
##①
##②
##③
##④
##⑤
##⑥
##⑦
##⑧
##⑨
##⑩
##⑴
##⑵
##⑶
##⑷
##⑸
##⒈
##⒉
##⒊
##⒋
##ⓒ
##ⓔ
##ⓘ
##━
##┃
##┆
##┊
##┌
##└
##├
##┣
##═
##║
##╚
##╞
##╠
##╭
##╮
##╯
##╰
##╱
##╳
##▂
##▃
##▅
##▇
##▉
##▋
##▌
##▍
##▎
##□
##▪
##▫
##▬
##△
##▶
##►
##▽
##◇
##◕
##◠
##◢
##◤
##☀
##☕
##☞
##☺
##☼
##♀
##♂
##♠
##♡
##♣
##♦
##♫
##♬
##✈
##✔
##✕
##✖
##✦
##✨
##✪
##✰
##✿
##❀
##➜
##➤
##⦿
##、
##。
##〃
##々
##〇
##〈
##〉
##《
##》
##「
##」
##『
##』
##【
##】
##〓
##〔
##〕
##〖
##〗
##〜
##〝
##〞
##ぃ
##ぇ
##ぬ
##ふ
##ほ
##む
##ゃ
##ゅ
##ゆ
##ょ
##゜
##ゝ
##ァ
##ゥ
##エ
##ォ
##ケ
##サ
##セ
##ソ
##ッ
##ニ
##ヌ
##ネ
##ノ
##ヘ
##モ
##ャ
##ヤ
##ュ
##ユ
##ョ
##ヨ
##ワ
##ヲ
##・
##ヽ
##ㄅ
##ㄆ
##ㄇ
##ㄉ
##ㄋ
##ㄌ
##ㄍ
##ㄎ
##ㄏ
##ㄒ
##ㄚ
##ㄛ
##ㄞ
##ㄟ
##ㄢ
##ㄤ
##ㄥ
##ㄧ
##ㄨ
##ㆍ
##㈦
##㊣
##㗎
##一
##丁
##七
##万
##丈
##三
##上
##下
##不
##与
##丐
##丑
##专
##且
##丕
##世
##丘
##丙
##业
##丛
##东
##丝
##丞
##丟
##両
##丢
##两
##严
##並
##丧
##丨
##个
##丫
##中
##丰
##串
##临
##丶
##丸
##丹
##为
##主
##丼
##丽
##举
##丿
##乂
##乃
##久
##么
##义
##之
##乌
##乍
##乎
##乏
##乐
##乒
##乓
##乔
##乖
##乗
##乘
##乙
##乜
##九
##乞
##也
##习
##乡
##书
##乩
##买
##乱
##乳
##乾
##亀
##亂
##了
##予
##争
##事
##二
##于
##亏
##云
##互
##五
##井
##亘
##亙
##亚
##些
##亜
##亞
##亟
##亡
##亢
##交
##亥
##亦
##产
##亨
##亩
##享
##京
##亭
##亮
##亲
##亳
##亵
##人
##亿
##什
##仁
##仃
##仄
##仅
##仆
##仇
##今
##介
##仍
##从
##仏
##仑
##仓
##仔
##仕
##他
##仗
##付
##仙
##仝
##仞
##仟
##代
##令
##以
##仨
##仪
##们
##仮
##仰
##仲
##件
##价
##任
##份
##仿
##企
##伉
##伊
##伍
##伎
##伏
##伐
##休
##伕
##众
##优
##伙
##会
##伝
##伞
##伟
##传
##伢
##伤
##伦
##伪
##伫
##伯
##估
##伴
##伶
##伸
##伺
##似
##伽
##佃
##但
##佇
##佈
##位
##低
##住
##佐
##佑
##体
##佔
##何
##佗
##佘
##余
##佚
##佛
##作
##佝
##佞
##佟
##你
##佢
##佣
##佤
##佥
##佩
##佬
##佯
##佰
##佳
##併
##佶
##佻
##佼
##使
##侃
##侄
##來
##侈
##例
##侍
##侏
##侑
##侖
##侗
##供
##依
##侠
##価
##侣
##侥
##侦
##侧
##侨
##侬
##侮
##侯
##侵
##侶
##侷
##便
##係
##促
##俄
##俊
##俎
##俏
##俐
##俑
##俗
##俘
##俚
##保
##俞
##俟
##俠
##信
##俨
##俩
##俪
##俬
##俭
##修
##俯
##俱
##俳
##俸
##俺
##俾
##倆
##倉
##個
##倌
##倍
##倏
##們
##倒
##倔
##倖
##倘
##候
##倚
##倜
##借
##倡
##値
##倦
##倩
##倪
##倫
##倬
##倭
##倶
##债
##值
##倾
##偃
##假
##偈
##偉
##偌
##偎
##偏
##偕
##做
##停
##健
##側
##偵
##偶
##偷
##偻
##偽
##偿
##傀
##傅
##傍
##傑
##傘
##備
##傚
##傢
##傣
##傥
##储
##傩
##催
##傭
##傲
##傳
##債
##傷
##傻
##傾
##僅
##働
##像
##僑
##僕
##僖
##僚
##僥
##僧
##僭
##僮
##僱
##僵
##價
##僻
##儀
##儂
##億
##儆
##儉
##儋
##儒
##儕
##儘
##償
##儡
##優
##儲
##儷
##儼
##儿
##兀
##允
##元
##兄
##充
##兆
##兇
##先
##光
##克
##兌
##免
##児
##兑
##兒
##兔
##兖
##党
##兜
##兢
##入
##內
##全
##兩
##八
##公
##六
##兮
##兰
##共
##兲
##关
##兴
##兵
##其
##具
##典
##兹
##养
##兼
##兽
##冀
##内
##円
##冇
##冈
##冉
##冊
##册
##再
##冏
##冒
##冕
##冗
##写
##军
##农
##冠
##冢
##冤
##冥
##冨
##冪
##冬
##冯
##冰
##冲
##决
##况
##冶
##冷
##冻
##冼
##冽
##冾
##净
##凄
##准
##凇
##凈
##凉
##凋
##凌
##凍
##减
##凑
##凛
##凜
##凝
##几
##凡
##凤
##処
##凪
##凭
##凯
##凰
##凱
##凳
##凶
##凸
##凹
##出
##击
##函
##凿
##刀
##刁
##刃
##分
##切
##刈
##刊
##刍
##刎
##刑
##划
##列
##刘
##则
##刚
##创
##初
##删
##判
##別
##刨
##利
##刪
##别
##刮
##到
##制
##刷
##券
##刹
##刺
##刻
##刽
##剁
##剂
##剃
##則
##剉
##削
##剋
##剌
##前
##剎
##剐
##剑
##剔
##剖
##剛
##剜
##剝
##剣
##剤
##剥
##剧
##剩
##剪
##副
##割
##創
##剷
##剽
##剿
##劃
##劇
##劈
##劉
##劊
##劍
##劏
##劑
##力
##劝
##办
##功
##加
##务
##劣
##动
##助
##努
##劫
##劭
##励
##劲
##劳
##労
##劵
##効
##劾
##势
##勁
##勃
##勇
##勉
##勋
##勐
##勒
##動
##勖
##勘
##務
##勛
##勝
##勞
##募
##勢
##勤
##勧
##勳
##勵
##勸
##勺
##勻
##勾
##勿
##匀
##包
##匆
##匈
##匍
##匐
##匕
##化
##北
##匙
##匝
##匠
##匡
##匣
##匪
##匮
##匯
##匱
##匹
##区
##医
##匾
##匿
##區
##十
##千
##卅
##升
##午
##卉
##半
##卍
##华
##协
##卑
##卒
##卓
##協
##单
##卖
##南
##単
##博
##卜
##卞
##卟
##占
##卡
##卢
##卤
##卦
##卧
##卫
##卮
##卯
##印
##危
##即
##却
##卵
##卷
##卸
##卻
##卿
##厂
##厄
##厅
##历
##厉
##压
##厌
##厕
##厘
##厚
##厝
##原
##厢
##厥
##厦
##厨
##厩
##厭
##厮
##厲
##厳
##去
##县
##叁
##参
##參
##又
##叉
##及
##友
##双
##反
##収
##发
##叔
##取
##受
##变
##叙
##叛
##叟
##叠
##叡
##叢
##口
##古
##句
##另
##叨
##叩
##只
##叫
##召
##叭
##叮
##可
##台
##叱
##史
##右
##叵
##叶
##号
##司
##叹
##叻
##叼
##叽
##吁
##吃
##各
##吆
##合
##吉
##吊
##吋
##同
##名
##后
##吏
##吐
##向
##吒
##吓
##吕
##吖
##吗
##君
##吝
##吞
##吟
##吠
##吡
##否
##吧
##吨
##吩
##含
##听
##吭
##吮
##启
##吱
##吳
##吴
##吵
##吶
##吸
##吹
##吻
##吼
##吽
##吾
##呀
##呂
##呃
##呆
##呈
##告
##呋
##呎
##呐
##呓
##呕
##呗
##员
##呛
##呜
##呢
##呤
##呦
##周
##呱
##呲
##味
##呵
##呷
##呸
##呻
##呼
##命
##咀
##咁
##咂
##咄
##咆
##咋
##和
##咎
##咏
##咐
##咒
##咔
##咕
##咖
##咗
##咘
##咙
##咚
##咛
##咣
##咤
##咦
##咧
##咨
##咩
##咪
##咫
##咬
##咭
##咯
##咱
##咲
##咳
##咸
##咻
##咽
##咿
##哀
##品
##哂
##哄
##哆
##哇
##哈
##哉
##哋
##哌
##响
##哎
##哏
##哐
##哑
##哒
##哔
##哗
##哟
##員
##哥
##哦
##哧
##哨
##哩
##哪
##哭
##哮
##哲
##哺
##哼
##哽
##唁
##唄
##唆
##唇
##唉
##唏
##唐
##唑
##唔
##唠
##唤
##唧
##唬
##售
##唯
##唰
##唱
##唳
##唷
##唸
##唾
##啃
##啄
##商
##啉
##啊
##問
##啓
##啕
##啖
##啜
##啞
##啟
##啡
##啤
##啥
##啦
##啧
##啪
##啫
##啬
##啮
##啰
##啱
##啲
##啵
##啶
##啷
##啸
##啻
##啼
##啾
##喀
##喂
##喃
##善
##喆
##喇
##喉
##喊
##喋
##喎
##喏
##喔
##喘
##喙
##喚
##喜
##喝
##喟
##喧
##喪
##喫
##喬
##單
##喰
##喱
##喲
##喳
##喵
##営
##喷
##喹
##喺
##喻
##喽
##嗅
##嗆
##嗇
##嗎
##嗑
##嗒
##嗓
##嗔
##嗖
##嗚
##嗜
##嗝
##嗟
##嗡
##嗣
##嗤
##嗦
##嗨
##嗪
##嗬
##嗯
##嗰
##嗲
##嗳
##嗶
##嗷
##嗽
##嘀
##嘅
##嘆
##嘈
##嘉
##嘌
##嘍
##嘎
##嘔
##嘖
##嘗
##嘘
##嘚
##嘛
##嘜
##嘞
##嘟
##嘢
##嘣
##嘤
##嘧
##嘩
##嘭
##嘮
##嘯
##嘰
##嘱
##嘲
##嘴
##嘶
##嘸
##嘹
##嘻
##嘿
##噁
##噌
##噎
##噓
##噔
##噗
##噙
##噜
##噠
##噢
##噤
##器
##噩
##噪
##噬
##噱
##噴
##噶
##噸
##噹
##噻
##噼
##嚀
##嚇
##嚎
##嚏
##嚐
##嚓
##嚕
##嚟
##嚣
##嚥
##嚨
##嚮
##嚴
##嚷
##嚼
##囂
##囉
##囊
##囍
##囑
##囔
##囗
##囚
##四
##囝
##回
##囟
##因
##囡
##团
##団
##囤
##囧
##囪
##囫
##园
##困
##囱
##囲
##図
##围
##囹
##固
##国
##图
##囿
##圃
##圄
##圆
##圈
##國
##圍
##圏
##園
##圓
##圖
##團
##圜
##土
##圣
##圧
##在
##圩
##圭
##地
##圳
##场
##圻
##圾
##址
##坂
##均
##坊
##坍
##坎
##坏
##坐
##坑
##块
##坚
##坛
##坝
##坞
##坟
##坠
##坡
##坤
##坦
##坨
##坪
##坯
##坳
##坵
##坷
##垂
##垃
##垄
##型
##垒
##垚
##垛
##垠
##垢
##垣
##垦
##垩
##垫
##垭
##垮
##垵
##埂
##埃
##埋
##城
##埔
##埕
##埗
##域
##埠
##埤
##埵
##執
##埸
##培
##基
##埼
##堀
##堂
##堃
##堅
##堆
##堇
##堑
##堕
##堙
##堡
##堤
##堪
##堯
##堰
##報
##場
##堵
##堺
##堿
##塊
##塌
##塑
##塔
##塗
##塘
##塚
##塞
##塢
##塩
##填
##塬
##塭
##塵
##塾
##墀
##境
##墅
##墉
##墊
##墒
##墓
##増
##墘
##墙
##墜
##增
##墟
##墨
##墩
##墮
##墳
##墻
##墾
##壁
##壅
##壆
##壇
##壊
##壑
##壓
##壕
##壘
##壞
##壟
##壢
##壤
##壩
##士
##壬
##壮
##壯
##声
##売
##壳
##壶
##壹
##壺
##壽
##处
##备
##変
##复
##夏
##夔
##夕
##外
##夙
##多
##夜
##够
##夠
##夢
##夥
##大
##天
##太
##夫
##夭
##央
##夯
##失
##头
##夷
##夸
##夹
##夺
##夾
##奂
##奄
##奇
##奈
##奉
##奋
##奎
##奏
##奐
##契
##奔
##奕
##奖
##套
##奘
##奚
##奠
##奢
##奥
##奧
##奪
##奬
##奮
##女
##奴
##奶
##奸
##她
##好
##如
##妃
##妄
##妆
##妇
##妈
##妊
##妍
##妒
##妓
##妖
##妘
##妙
##妝
##妞
##妣
##妤
##妥
##妨
##妩
##妪
##妮
##妲
##妳
##妹
##妻
##妾
##姆
##姉
##姊
##始
##姍
##姐
##姑
##姒
##姓
##委
##姗
##姚
##姜
##姝
##姣
##姥
##姦
##姨
##姪
##姫
##姬
##姹
##姻
##姿
##威
##娃
##娄
##娅
##娆
##娇
##娉
##娑
##娓
##娘
##娛
##娜
##娟
##娠
##娣
##娥
##娩
##娱
##娲
##娴
##娶
##娼
##婀
##婁
##婆
##婉
##婊
##婕
##婚
##婢
##婦
##婧
##婪
##婭
##婴
##婵
##婶
##婷
##婺
##婿
##媒
##媚
##媛
##媞
##媧
##媲
##媳
##媽
##媾
##嫁
##嫂
##嫉
##嫌
##嫑
##嫔
##嫖
##嫘
##嫚
##嫡
##嫣
##嫦
##嫩
##嫲
##嫵
##嫻
##嬅
##嬉
##嬌
##嬗
##嬛
##嬢
##嬤
##嬪
##嬰
##嬴
##嬷
##嬸
##嬿
##孀
##孃
##子
##孑
##孔
##孕
##孖
##字
##存
##孙
##孚
##孛
##孜
##孝
##孟
##孢
##季
##孤
##学
##孩
##孪
##孫
##孬
##孰
##孱
##孳
##孵
##學
##孺
##孽
##孿
##宁
##它
##宅
##宇
##守
##安
##宋
##完
##宏
##宓
##宕
##宗
##官
##宙
##定
##宛
##宜
##宝
##实
##実
##宠
##审
##客
##宣
##室
##宥
##宦
##宪
##宫
##宮
##宰
##害
##宴
##宵
##家
##宸
##容
##宽
##宾
##宿
##寂
##寄
##寅
##密
##寇
##富
##寐
##寒
##寓
##寛
##寝
##寞
##察
##寡
##寢
##寥
##實
##寧
##寨
##審
##寫
##寬
##寮
##寰
##寵
##寶
##寸
##对
##寺
##寻
##导
##対
##寿
##封
##専
##射
##将
##將
##專
##尉
##尊
##尋
##對
##導
##小
##少
##尔
##尕
##尖
##尘
##尚
##尝
##尤
##尧
##尬
##就
##尴
##尷
##尸
##尹
##尺
##尻
##尼
##尽
##尾
##尿
##局
##屁
##层
##屄
##居
##屆
##屈
##屉
##届
##屋
##屌
##屍
##屎
##屏
##屐
##屑
##展
##屜
##属
##屠
##屡
##屢
##層
##履
##屬
##屯
##山
##屹
##屿
##岀
##岁
##岂
##岌
##岐
##岑
##岔
##岖
##岗
##岘
##岙
##岚
##岛
##岡
##岩
##岫
##岬
##岭
##岱
##岳
##岷
##岸
##峇
##峋
##峒
##峙
##峡
##峤
##峥
##峦
##峨
##峪
##峭
##峯
##峰
##峴
##島
##峻
##峽
##崁
##崂
##崆
##崇
##崎
##崑
##崔
##崖
##崗
##崙
##崛
##崧
##崩
##崭
##崴
##崽
##嵇
##嵊
##嵋
##嵌
##嵐
##嵘
##嵩
##嵬
##嵯
##嶂
##嶄
##嶇
##嶋
##嶙
##嶺
##嶼
##嶽
##巅
##巍
##巒
##巔
##巖
##川
##州
##巡
##巢
##工
##左
##巧
##巨
##巩
##巫
##差
##己
##已
##巳
##巴
##巷
##巻
##巽
##巾
##巿
##币
##市
##布
##帅
##帆
##师
##希
##帐
##帑
##帕
##帖
##帘
##帚
##帛
##帜
##帝
##帥
##带
##帧
##師
##席
##帮
##帯
##帰
##帳
##帶
##帷
##常
##帼
##帽
##幀
##幂
##幄
##幅
##幌
##幔
##幕
##幟
##幡
##幢
##幣
##幫
##干
##平
##年
##并
##幸
##幹
##幺
##幻
##幼
##幽
##幾
##广
##庁
##広
##庄
##庆
##庇
##床
##序
##庐
##库
##应
##底
##庖
##店
##庙
##庚
##府
##庞
##废
##庠
##度
##座
##庫
##庭
##庵
##庶
##康
##庸
##庹
##庾
##廁
##廂
##廃
##廈
##廉
##廊
##廓
##廖
##廚
##廝
##廟
##廠
##廢
##廣
##廬
##廳
##延
##廷
##建
##廿
##开
##弁
##异
##弃
##弄
##弈
##弊
##弋
##式
##弑
##弒
##弓
##弔
##引
##弗
##弘
##弛
##弟
##张
##弥
##弦
##弧
##弩
##弭
##弯
##弱
##張
##強
##弹
##强
##弼
##弾
##彅
##彆
##彈
##彌
##彎
##归
##当
##录
##彗
##彙
##彝
##形
##彤
##彥
##彦
##彧
##彩
##彪
##彫
##彬
##彭
##彰
##影
##彷
##役
##彻
##彼
##彿
##往
##征
##径
##待
##徇
##很
##徉
##徊
##律
##後
##徐
##徑
##徒
##従
##徕
##得
##徘
##徙
##徜
##從
##徠
##御
##徨
##復
##循
##徬
##微
##徳
##徴
##徵
##德
##徹
##徼
##徽
##心
##必
##忆
##忌
##忍
##忏
##忐
##忑
##忒
##忖
##志
##忘
##忙
##応
##忠
##忡
##忤
##忧
##忪
##快
##忱
##念
##忻
##忽
##忿
##怀
##态
##怂
##怅
##怆
##怎
##怏
##怒
##怔
##怕
##怖
##怙
##怜
##思
##怠
##怡
##急
##怦
##性
##怨
##怪
##怯
##怵
##总
##怼
##恁
##恃
##恆
##恋
##恍
##恐
##恒
##恕
##恙
##恚
##恢
##恣
##恤
##恥
##恨
##恩
##恪
##恫
##恬
##恭
##息
##恰
##恳
##恵
##恶
##恸
##恺
##恻
##恼
##恿
##悄
##悅
##悉
##悌
##悍
##悔
##悖
##悚
##悟
##悠
##患
##悦
##您
##悩
##悪
##悬
##悯
##悱
##悲
##悴
##悵
##悶
##悸
##悻
##悼
##悽
##情
##惆
##惇
##惊
##惋
##惑
##惕
##惘
##惚
##惜
##惟
##惠
##惡
##惦
##惧
##惨
##惩
##惫
##惬
##惭
##惮
##惯
##惰
##惱
##想
##惴
##惶
##惹
##惺
##愁
##愆
##愈
##愉
##愍
##意
##愕
##愚
##愛
##愜
##感
##愣
##愤
##愧
##愫
##愷
##愿
##慄
##慈
##態
##慌
##慎
##慑
##慕
##慘
##慚
##慟
##慢
##慣
##慧
##慨
##慫
##慮
##慰
##慳
##慵
##慶
##慷
##慾
##憂
##憊
##憋
##憎
##憐
##憑
##憔
##憚
##憤
##憧
##憨
##憩
##憫
##憬
##憲
##憶
##憾
##懂
##懇
##懈
##應
##懊
##懋
##懑
##懒
##懦
##懲
##懵
##懶
##懷
##懸
##懺
##懼
##懾
##懿
##戀
##戈
##戊
##戌
##戍
##戎
##戏
##成
##我
##戒
##戕
##或
##战
##戚
##戛
##戟
##戡
##戦
##截
##戬
##戮
##戰
##戲
##戳
##戴
##戶
##户
##戸
##戻
##戾
##房
##所
##扁
##扇
##扈
##扉
##手
##才
##扎
##扑
##扒
##打
##扔
##払
##托
##扛
##扣
##扦
##执
##扩
##扪
##扫
##扬
##扭
##扮
##扯
##扰
##扱
##扳
##扶
##批
##扼
##找
##承
##技
##抄
##抉
##把
##抑
##抒
##抓
##投
##抖
##抗
##折
##抚
##抛
##抜
##択
##抟
##抠
##抡
##抢
##护
##报
##抨
##披
##抬
##抱
##抵
##抹
##押
##抽
##抿
##拂
##拄
##担
##拆
##拇
##拈
##拉
##拋
##拌
##拍
##拎
##拐
##拒
##拓
##拔
##拖
##拗
##拘
##拙
##拚
##招
##拜
##拟
##拡
##拢
##拣
##拥
##拦
##拧
##拨
##择
##括
##拭
##拮
##拯
##拱
##拳
##拴
##拷
##拼
##拽
##拾
##拿
##持
##挂
##指
##挈
##按
##挎
##挑
##挖
##挙
##挚
##挛
##挝
##挞
##挟
##挠
##挡
##挣
##挤
##挥
##挨
##挪
##挫
##振
##挲
##挹
##挺
##挽
##挾
##捂
##捅
##捆
##捉
##捋
##捌
##捍
##捎
##捏
##捐
##捕
##捞
##损
##捡
##换
##捣
##捧
##捨
##捩
##据
##捱
##捲
##捶
##捷
##捺
##捻
##掀
##掂
##掃
##掇
##授
##掉
##掌
##掏
##掐
##排
##掖
##掘
##掙
##掛
##掠
##採
##探
##掣
##接
##控
##推
##掩
##措
##掬
##掰
##掲
##掳
##掴
##掷
##掸
##掺
##揀
##揃
##揄
##揆
##揉
##揍
##描
##提
##插
##揖
##揚
##換
##握
##揣
##揩
##揪
##揭
##揮
##援
##揶
##揸
##揹
##揽
##搀
##搁
##搂
##搅
##損
##搏
##搐
##搓
##搔
##搖
##搗
##搜
##搞
##搡
##搪
##搬
##搭
##搵
##搶
##携
##搽
##摀
##摁
##摄
##摆
##摇
##摈
##摊
##摒
##摔
##摘
##摞
##摟
##摧
##摩
##摯
##摳
##摸
##摹
##摺
##摻
##撂
##撃
##撅
##撇
##撈
##撐
##撑
##撒
##撓
##撕
##撚
##撞
##撤
##撥
##撩
##撫
##撬
##播
##撮
##撰
##撲
##撵
##撷
##撸
##撻
##撼
##撿
##擀
##擁
##擂
##擄
##擅
##擇
##擊
##擋
##操
##擎
##擒
##擔
##擘
##據
##擞
##擠
##擡
##擢
##擦
##擬
##擰
##擱
##擲
##擴
##擷
##擺
##擼
##擾
##攀
##攏
##攒
##攔
##攘
##攙
##攜
##攝
##攞
##攢
##攣
##攤
##攥
##攪
##攫
##攬
##支
##收
##攸
##改
##攻
##放
##政
##故
##效
##敌
##敍
##敎
##敏
##救
##敕
##敖
##敗
##敘
##教
##敛
##敝
##敞
##敢
##散
##敦
##敬
##数
##敲
##整
##敵
##敷
##數
##斂
##斃
##文
##斋
##斌
##斎
##斐
##斑
##斓
##斗
##料
##斛
##斜
##斟
##斡
##斤
##斥
##斧
##斩
##斫
##斬
##断
##斯
##新
##斷
##方
##於
##施
##旁
##旃
##旅
##旋
##旌
##旎
##族
##旖
##旗
##无
##既
##日
##旦
##旧
##旨
##早
##旬
##旭
##旮
##旱
##时
##旷
##旺
##旻
##昀
##昂
##昆
##昇
##昉
##昊
##昌
##明
##昏
##易
##昔
##昕
##昙
##星
##映
##春
##昧
##昨
##昭
##是
##昱
##昴
##昵
##昶
##昼
##显
##晁
##時
##晃
##晉
##晋
##晌
##晏
##晒
##晓
##晔
##晕
##晖
##晗
##晚
##晝
##晞
##晟
##晤
##晦
##晨
##晩
##普
##景
##晰
##晴
##晶
##晷
##智
##晾
##暂
##暄
##暇
##暈
##暉
##暌
##暐
##暑
##暖
##暗
##暝
##暢
##暧
##暨
##暫
##暮
##暱
##暴
##暸
##暹
##曄
##曆
##曇
##曉
##曖
##曙
##曜
##曝
##曠
##曦
##曬
##曰
##曲
##曳
##更
##書
##曹
##曼
##曾
##替
##最
##會
##月
##有
##朋
##服
##朐
##朔
##朕
##朗
##望
##朝
##期
##朦
##朧
##木
##未
##末
##本
##札
##朮
##术
##朱
##朴
##朵
##机
##朽
##杀
##杂
##权
##杆
##杈
##杉
##李
##杏
##材
##村
##杓
##杖
##杜
##杞
##束
##杠
##条
##来
##杨
##杭
##杯
##杰
##東
##杳
##杵
##杷
##杼
##松
##板
##极
##构
##枇
##枉
##枋
##析
##枕
##林
##枚
##果
##枝
##枢
##枣
##枪
##枫
##枭
##枯
##枰
##枱
##枳
##架
##枷
##枸
##柄
##柏
##某
##柑
##柒
##染
##柔
##柘
##柚
##柜
##柞
##柠
##柢
##查
##柩
##柬
##柯
##柱
##柳
##柴
##柵
##査
##柿
##栀
##栃
##栄
##栅
##标
##栈
##栉
##栋
##栎
##栏
##树
##栓
##栖
##栗
##校
##栩
##株
##样
##核
##根
##格
##栽
##栾
##桀
##桁
##桂
##桃
##桅
##框
##案
##桉
##桌
##桎
##桐
##桑
##桓
##桔
##桜
##桠
##桡
##桢
##档
##桥
##桦
##桧
##桨
##桩
##桶
##桿
##梁
##梅
##梆
##梏
##梓
##梗
##條
##梟
##梢
##梦
##梧
##梨
##梭
##梯
##械
##梳
##梵
##梶
##检
##棂
##棄
##棉
##棋
##棍
##棒
##棕
##棗
##棘
##棚
##棟
##棠
##棣
##棧
##森
##棱
##棲
##棵
##棹
##棺
##椁
##椅
##椋
##植
##椎
##椒
##検
##椪
##椭
##椰
##椹
##椽
##椿
##楂
##楊
##楓
##楔
##楚
##楝
##楞
##楠
##楣
##楨
##楫
##業
##楮
##極
##楷
##楸
##楹
##楼
##楽
##概
##榄
##榆
##榈
##榉
##榔
##榕
##榖
##榛
##榜
##榨
##榫
##榭
##榮
##榱
##榴
##榷
##榻
##槁
##槃
##構
##槌
##槍
##槎
##槐
##槓
##様
##槛
##槟
##槤
##槭
##槲
##槳
##槻
##槽
##槿
##樁
##樂
##樊
##樑
##樓
##標
##樞
##樟
##模
##樣
##権
##横
##樫
##樯
##樱
##樵
##樸
##樹
##樺
##樽
##樾
##橄
##橇
##橋
##橐
##橘
##橙
##機
##橡
##橢
##橫
##橱
##橹
##橼
##檀
##檄
##檎
##檐
##檔
##檗
##檜
##檢
##檬
##檯
##檳
##檸
##檻
##櫃
##櫚
##櫛
##櫥
##櫸
##櫻
##欄
##權
##欒
##欖
##欠
##次
##欢
##欣
##欧
##欲
##欸
##欺
##欽
##款
##歆
##歇
##歉
##歌
##歎
##歐
##歓
##歙
##歛
##歡
##止
##正
##此
##步
##武
##歧
##歩
##歪
##歯
##歲
##歳
##歴
##歷
##歸
##歹
##死
##歼
##殁
##殃
##殆
##殇
##殉
##殊
##残
##殒
##殓
##殖
##殘
##殞
##殡
##殤
##殭
##殯
##殲
##殴
##段
##殷
##殺
##殼
##殿
##毀
##毁
##毂
##毅
##毆
##毋
##母
##毎
##每
##毒
##毓
##比
##毕
##毗
##毘
##毙
##毛
##毡
##毫
##毯
##毽
##氈
##氏
##氐
##民
##氓
##气
##氖
##気
##氙
##氛
##氟
##氡
##氢
##氣
##氤
##氦
##氧
##氨
##氪
##氫
##氮
##氯
##氰
##氲
##水
##氷
##永
##氹
##氾
##汀
##汁
##求
##汆
##汇
##汉
##汎
##汐
##汕
##汗
##汙
##汛
##汝
##汞
##江
##池
##污
##汤
##汨
##汩
##汪
##汰
##汲
##汴
##汶
##汹
##決
##汽
##汾
##沁
##沂
##沃
##沅
##沈
##沉
##沌
##沏
##沐
##沒
##沓
##沖
##沙
##沛
##沟
##没
##沢
##沣
##沥
##沦
##沧
##沪
##沫
##沭
##沮
##沱
##河
##沸
##油
##治
##沼
##沽
##沾
##沿
##況
##泄
##泉
##泊
##泌
##泓
##法
##泗
##泛
##泞
##泠
##泡
##波
##泣
##泥
##注
##泪
##泫
##泮
##泯
##泰
##泱
##泳
##泵
##泷
##泸
##泻
##泼
##泽
##泾
##洁
##洄
##洋
##洒
##洗
##洙
##洛
##洞
##津
##洩
##洪
##洮
##洱
##洲
##洵
##洶
##洸
##洹
##活
##洼
##洽
##派
##流
##浃
##浄
##浅
##浆
##浇
##浊
##测
##济
##浏
##浑
##浒
##浓
##浔
##浙
##浚
##浜
##浣
##浦
##浩
##浪
##浬
##浮
##浯
##浴
##海
##浸
##涂
##涅
##涇
##消
##涉
##涌
##涎
##涓
##涔
##涕
##涙
##涛
##涝
##涞
##涟
##涠
##涡
##涣
##涤
##润
##涧
##涨
##涩
##涪
##涮
##涯
##液
##涵
##涸
##涼
##涿
##淀
##淄
##淅
##淆
##淇
##淋
##淌
##淑
##淒
##淖
##淘
##淙
##淚
##淞
##淡
##淤
##淦
##淨
##淩
##淪
##淫
##淬
##淮
##深
##淳
##淵
##混
##淹
##淺
##添
##淼
##清
##済
##渉
##渊
##渋
##渍
##渎
##渐
##渔
##渗
##渙
##渚
##減
##渝
##渠
##渡
##渣
##渤
##渥
##渦
##温
##測
##渭
##港
##渲
##渴
##游
##渺
##渾
##湃
##湄
##湊
##湍
##湖
##湘
##湛
##湟
##湧
##湫
##湮
##湯
##湳
##湾
##湿
##満
##溃
##溅
##溉
##溏
##源
##準
##溜
##溝
##溟
##溢
##溥
##溧
##溪
##溫
##溯
##溱
##溴
##溶
##溺
##溼
##滁
##滂
##滄
##滅
##滇
##滋
##滌
##滑
##滓
##滔
##滕
##滙
##滚
##滝
##滞
##滟
##满
##滢
##滤
##滥
##滦
##滨
##滩
##滬
##滯
##滲
##滴
##滷
##滸
##滾
##滿
##漁
##漂
##漆
##漉
##漏
##漓
##演
##漕
##漠
##漢
##漣
##漩
##漪
##漫
##漬
##漯
##漱
##漲
##漳
##漸
##漾
##漿
##潆
##潇
##潋
##潍
##潑
##潔
##潘
##潛
##潜
##潞
##潟
##潢
##潤
##潦
##潧
##潭
##潮
##潰
##潴
##潸
##潺
##潼
##澀
##澄
##澆
##澈
##澍
##澎
##澗
##澜
##澡
##澤
##澧
##澱
##澳
##澹
##激
##濁
##濂
##濃
##濑
##濒
##濕
##濘
##濛
##濟
##濠
##濡
##濤
##濫
##濬
##濮
##濯
##濱
##濺
##濾
##瀅
##瀆
##瀉
##瀋
##瀏
##瀑
##瀕
##瀘
##瀚
##瀛
##瀝
##瀞
##瀟
##瀧
##瀨
##瀬
##瀰
##瀾
##灌
##灏
##灑
##灘
##灝
##灞
##灣
##火
##灬
##灭
##灯
##灰
##灵
##灶
##灸
##灼
##災
##灾
##灿
##炀
##炁
##炅
##炉
##炊
##炎
##炒
##炔
##炕
##炖
##炙
##炜
##炫
##炬
##炭
##炮
##炯
##炳
##炷
##炸
##点
##為
##炼
##炽
##烁
##烂
##烃
##烈
##烊
##烏
##烘
##烙
##烛
##烟
##烤
##烦
##烧
##烨
##烩
##烫
##烬
##热
##烯
##烷
##烹
##烽
##焉
##焊
##焕
##焖
##焗
##焘
##焙
##焚
##焜
##無
##焦
##焯
##焰
##焱
##然
##焼
##煅
##煉
##煊
##煌
##煎
##煒
##煖
##煙
##煜
##煞
##煤
##煥
##煦
##照
##煨
##煩
##煮
##煲
##煸
##煽
##熄
##熊
##熏
##熒
##熔
##熙
##熟
##熠
##熨
##熬
##熱
##熵
##熹
##熾
##燁
##燃
##燄
##燈
##燉
##燊
##燎
##燒
##燔
##燕
##燙
##燜
##營
##燥
##燦
##燧
##燭
##燮
##燴
##燻
##燼
##燿
##爆
##爍
##爐
##爛
##爪
##爬
##爭
##爰
##爱
##爲
##爵
##父
##爷
##爸
##爹
##爺
##爻
##爽
##爾
##牆
##片
##版
##牌
##牍
##牒
##牙
##牛
##牝
##牟
##牠
##牡
##牢
##牦
##牧
##物
##牯
##牲
##牴
##牵
##特
##牺
##牽
##犀
##犁
##犄
##犊
##犍
##犒
##犢
##犧
##犬
##犯
##状
##犷
##犸
##犹
##狀
##狂
##狄
##狈
##狎
##狐
##狒
##狗
##狙
##狞
##狠
##狡
##狩
##独
##狭
##狮
##狰
##狱
##狸
##狹
##狼
##狽
##猎
##猕
##猖
##猗
##猙
##猛
##猜
##猝
##猥
##猩
##猪
##猫
##猬
##献
##猴
##猶
##猷
##猾
##猿
##獄
##獅
##獎
##獐
##獒
##獗
##獠
##獣
##獨
##獭
##獰
##獲
##獵
##獷
##獸
##獺
##獻
##獼
##獾
##玄
##率
##玉
##王
##玑
##玖
##玛
##玟
##玠
##玥
##玩
##玫
##玮
##环
##现
##玲
##玳
##玷
##玺
##玻
##珀
##珂
##珅
##珈
##珉
##珊
##珍
##珏
##珐
##珑
##珙
##珞
##珠
##珣
##珥
##珩
##珪
##班
##珮
##珲
##珺
##現
##球
##琅
##理
##琇
##琉
##琊
##琍
##琏
##琐
##琛
##琢
##琥
##琦
##琨
##琪
##琬
##琮
##琰
##琲
##琳
##琴
##琵
##琶
##琺
##琼
##瑀
##瑁
##瑄
##瑋
##瑕
##瑗
##瑙
##瑚
##瑛
##瑜
##瑞
##瑟
##瑠
##瑣
##瑤
##瑩
##瑪
##瑯
##瑰
##瑶
##瑾
##璀
##璁
##璃
##璇
##璉
##璋
##璎
##璐
##璜
##璞
##璟
##璧
##璨
##環
##璽
##璿
##瓊
##瓏
##瓒
##瓜
##瓢
##瓣
##瓤
##瓦
##瓮
##瓯
##瓴
##瓶
##瓷
##甄
##甌
##甕
##甘
##甙
##甚
##甜
##生
##產
##産
##甥
##甦
##用
##甩
##甫
##甬
##甭
##甯
##田
##由
##甲
##申
##电
##男
##甸
##町
##画
##甾
##畀
##畅
##界
##畏
##畑
##畔
##留
##畜
##畝
##畢
##略
##畦
##番
##畫
##異
##畲
##畳
##畴
##當
##畸
##畹
##畿
##疆
##疇
##疊
##疏
##疑
##疔
##疖
##疗
##疙
##疚
##疝
##疟
##疡
##疣
##疤
##疥
##疫
##疮
##疯
##疱
##疲
##疳
##疵
##疸
##疹
##疼
##疽
##疾
##痂
##病
##症
##痈
##痉
##痊
##痍
##痒
##痔
##痕
##痘
##痙
##痛
##痞
##痠
##痢
##痣
##痤
##痧
##痨
##痪
##痫
##痰
##痱
##痴
##痹
##痺
##痼
##痿
##瘀
##瘁
##瘋
##瘍
##瘓
##瘘
##瘙
##瘟
##瘠
##瘡
##瘢
##瘤
##瘦
##瘧
##瘩
##瘪
##瘫
##瘴
##瘸
##瘾
##療
##癇
##癌
##癒
##癖
##癜
##癞
##癡
##癢
##癣
##癥
##癫
##癬
##癮
##癱
##癲
##癸
##発
##登
##發
##白
##百
##皂
##的
##皆
##皇
##皈
##皋
##皎
##皑
##皓
##皖
##皙
##皚
##皮
##皰
##皱
##皴
##皺
##皿
##盂
##盃
##盅
##盆
##盈
##益
##盎
##盏
##盐
##监
##盒
##盔
##盖
##盗
##盘
##盛
##盜
##盞
##盟
##盡
##監
##盤
##盥
##盧
##盪
##目
##盯
##盱
##盲
##直
##相
##盹
##盼
##盾
##省
##眈
##眉
##看
##県
##眙
##眞
##真
##眠
##眦
##眨
##眩
##眯
##眶
##眷
##眸
##眺
##眼
##眾
##着
##睁
##睇
##睏
##睐
##睑
##睛
##睜
##睞
##睡
##睢
##督
##睥
##睦
##睨
##睪
##睫
##睬
##睹
##睽
##睾
##睿
##瞄
##瞅
##瞇
##瞋
##瞌
##瞎
##瞑
##瞒
##瞓
##瞞
##瞟
##瞠
##瞥
##瞧
##瞩
##瞪
##瞬
##瞭
##瞰
##瞳
##瞻
##瞼
##瞿
##矇
##矍
##矗
##矚
##矛
##矜
##矢
##矣
##知
##矩
##矫
##短
##矮
##矯
##石
##矶
##矽
##矾
##矿
##码
##砂
##砌
##砍
##砒
##研
##砖
##砗
##砚
##砝
##砣
##砥
##砧
##砭
##砰
##砲
##破
##砷
##砸
##砺
##砼
##砾
##础
##硅
##硐
##硒
##硕
##硝
##硫
##硬
##确
##硯
##硼
##碁
##碇
##碉
##碌
##碍
##碎
##碑
##碓
##碗
##碘
##碚
##碛
##碟
##碣
##碧
##碩
##碰
##碱
##碳
##碴
##確
##碼
##碾
##磁
##磅
##磊
##磋
##磐
##磕
##磚
##磡
##磨
##磬
##磯
##磲
##磷
##磺
##礁
##礎
##礙
##礡
##礦
##礪
##礫
##礴
##示
##礼
##社
##祀
##祁
##祂
##祇
##祈
##祉
##祎
##祐
##祕
##祖
##祗
##祚
##祛
##祜
##祝
##神
##祟
##祠
##祢
##祥
##票
##祭
##祯
##祷
##祸
##祺
##祿
##禀
##禁
##禄
##禅
##禍
##禎
##福
##禛
##禦
##禧
##禪
##禮
##禱
##禹
##禺
##离
##禽
##禾
##禿
##秀
##私
##秃
##秆
##秉
##秋
##种
##科
##秒
##秘
##租
##秣
##秤
##秦
##秧
##秩
##秭
##积
##称
##秸
##移
##秽
##稀
##稅
##程
##稍
##税
##稔
##稗
##稚
##稜
##稞
##稟
##稠
##稣
##種
##稱
##稲
##稳
##稷
##稹
##稻
##稼
##稽
##稿
##穀
##穂
##穆
##穌
##積
##穎
##穗
##穢
##穩
##穫
##穴
##究
##穷
##穹
##空
##穿
##突
##窃
##窄
##窈
##窍
##窑
##窒
##窓
##窕
##窖
##窗
##窘
##窜
##窝
##窟
##窠
##窥
##窦
##窨
##窩
##窪
##窮
##窯
##窺
##窿
##竄
##竅
##竇
##竊
##立
##竖
##站
##竜
##竞
##竟
##章
##竣
##童
##竭
##端
##競
##竹
##竺
##竽
##竿
##笃
##笆
##笈
##笋
##笏
##笑
##笔
##笙
##笛
##笞
##笠
##符
##笨
##第
##笹
##笺
##笼
##筆
##等
##筊
##筋
##筍
##筏
##筐
##筑
##筒
##答
##策
##筛
##筝
##筠
##筱
##筲
##筵
##筷
##筹
##签
##简
##箇
##箋
##箍
##箏
##箐
##箔
##箕
##算
##箝
##管
##箩
##箫
##箭
##箱
##箴
##箸
##節
##篁
##範
##篆
##篇
##築
##篑
##篓
##篙
##篝
##篠
##篡
##篤
##篩
##篪
##篮
##篱
##篷
##簇
##簌
##簍
##簡
##簦
##簧
##簪
##簫
##簷
##簸
##簽
##簾
##簿
##籁
##籃
##籌
##籍
##籐
##籟
##籠
##籤
##籬
##籮
##籲
##米
##类
##籼
##籽
##粄
##粉
##粑
##粒
##粕
##粗
##粘
##粟
##粤
##粥
##粧
##粪
##粮
##粱
##粲
##粳
##粵
##粹
##粼
##粽
##精
##粿
##糅
##糊
##糍
##糕
##糖
##糗
##糙
##糜
##糞
##糟
##糠
##糧
##糬
##糯
##糰
##糸
##系
##糾
##紀
##紂
##約
##紅
##紉
##紊
##紋
##納
##紐
##紓
##純
##紗
##紘
##紙
##級
##紛
##紜
##素
##紡
##索
##紧
##紫
##紮
##累
##細
##紳
##紹
##紺
##終
##絃
##組
##絆
##経
##結
##絕
##絞
##絡
##絢
##給
##絨
##絮
##統
##絲
##絳
##絵
##絶
##絹
##綁
##綏
##綑
##經
##継
##続
##綜
##綠
##綢
##綦
##綫
##綬
##維
##綱
##網
##綴
##綵
##綸
##綺
##綻
##綽
##綾
##綿
##緊
##緋
##総
##緑
##緒
##緘
##線
##緝
##緞
##締
##緣
##編
##緩
##緬
##緯
##練
##緹
##緻
##縁
##縄
##縈
##縛
##縝
##縣
##縫
##縮
##縱
##縴
##縷
##總
##績
##繁
##繃
##繆
##繇
##繋
##織
##繕
##繚
##繞
##繡
##繩
##繪
##繫
##繭
##繳
##繹
##繼
##繽
##纂
##續
##纍
##纏
##纓
##纔
##纖
##纜
##纠
##红
##纣
##纤
##约
##级
##纨
##纪
##纫
##纬
##纭
##纯
##纰
##纱
##纲
##纳
##纵
##纶
##纷
##纸
##纹
##纺
##纽
##纾
##线
##绀
##练
##组
##绅
##细
##织
##终
##绊
##绍
##绎
##经
##绑
##绒
##结
##绔
##绕
##绘
##给
##绚
##绛
##络
##绝
##绞
##统
##绡
##绢
##绣
##绥
##绦
##继
##绩
##绪
##绫
##续
##绮
##绯
##绰
##绳
##维
##绵
##绶
##绷
##绸
##绻
##综
##绽
##绾
##绿
##缀
##缄
##缅
##缆
##缇
##缈
##缉
##缎
##缓
##缔
##缕
##编
##缘
##缙
##缚
##缜
##缝
##缠
##缢
##缤
##缥
##缨
##缩
##缪
##缭
##缮
##缰
##缱
##缴
##缸
##缺
##缽
##罂
##罄
##罌
##罐
##网
##罔
##罕
##罗
##罚
##罡
##罢
##罩
##罪
##置
##罰
##署
##罵
##罷
##罹
##羁
##羅
##羈
##羊
##羌
##美
##羔
##羚
##羞
##羟
##羡
##羣
##群
##羥
##羧
##羨
##義
##羯
##羲
##羸
##羹
##羽
##羿
##翁
##翅
##翊
##翌
##翎
##習
##翔
##翘
##翟
##翠
##翡
##翦
##翩
##翰
##翱
##翳
##翹
##翻
##翼
##耀
##老
##考
##耄
##者
##耆
##耋
##而
##耍
##耐
##耒
##耕
##耗
##耘
##耙
##耦
##耨
##耳
##耶
##耷
##耸
##耻
##耽
##耿
##聂
##聆
##聊
##聋
##职
##聒
##联
##聖
##聘
##聚
##聞
##聪
##聯
##聰
##聲
##聳
##聴
##聶
##職
##聽
##聾
##聿
##肃
##肄
##肅
##肆
##肇
##肉
##肋
##肌
##肏
##肓
##肖
##肘
##肚
##肛
##肝
##肠
##股
##肢
##肤
##肥
##肩
##肪
##肮
##肯
##肱
##育
##肴
##肺
##肽
##肾
##肿
##胀
##胁
##胃
##胄
##胆
##背
##胍
##胎
##胖
##胚
##胛
##胜
##胝
##胞
##胡
##胤
##胥
##胧
##胫
##胭
##胯
##胰
##胱
##胳
##胴
##胶
##胸
##胺
##能
##脂
##脅
##脆
##脇
##脈
##脉
##脊
##脍
##脏
##脐
##脑
##脓
##脖
##脘
##脚
##脛
##脣
##脩
##脫
##脯
##脱
##脲
##脳
##脸
##脹
##脾
##腆
##腈
##腊
##腋
##腌
##腎
##腐
##腑
##腓
##腔
##腕
##腥
##腦
##腩
##腫
##腭
##腮
##腰
##腱
##腳
##腴
##腸
##腹
##腺
##腻
##腼
##腾
##腿
##膀
##膈
##膊
##膏
##膑
##膘
##膚
##膛
##膜
##膝
##膠
##膦
##膨
##膩
##膳
##膺
##膻
##膽
##膾
##膿
##臀
##臂
##臃
##臆
##臉
##臊
##臍
##臓
##臘
##臟
##臣
##臥
##臧
##臨
##自
##臬
##臭
##至
##致
##臺
##臻
##臼
##臾
##舀
##舂
##舅
##舆
##與
##興
##舉
##舊
##舌
##舍
##舎
##舐
##舒
##舔
##舖
##舗
##舛
##舜
##舞
##舟
##航
##舫
##般
##舰
##舱
##舵
##舶
##舷
##舸
##船
##舺
##舾
##艇
##艋
##艘
##艙
##艦
##艮
##良
##艰
##艱
##色
##艳
##艷
##艹
##艺
##艾
##节
##芃
##芈
##芊
##芋
##芍
##芎
##芒
##芙
##芜
##芝
##芡
##芥
##芦
##芩
##芪
##芫
##芬
##芭
##芮
##芯
##花
##芳
##芷
##芸
##芹
##芻
##芽
##芾
##苁
##苄
##苇
##苋
##苍
##苏
##苑
##苒
##苓
##苔
##苕
##苗
##苛
##苜
##苞
##苟
##苡
##苣
##若
##苦
##苫
##苯
##英
##苷
##苹
##苻
##茁
##茂
##范
##茄
##茅
##茉
##茎
##茏
##茗
##茜
##茧
##茨
##茫
##茬
##茭
##茯
##茱
##茲
##茴
##茵
##茶
##茸
##茹
##茼
##荀
##荃
##荆
##草
##荊
##荏
##荐
##荒
##荔
##荖
##荘
##荚
##荞
##荟
##荠
##荡
##荣
##荤
##荥
##荧
##荨
##荪
##荫
##药
##荳
##荷
##荸
##荻
##荼
##荽
##莅
##莆
##莉
##莊
##莎
##莒
##莓
##莖
##莘
##莞
##莠
##莢
##莧
##莪
##莫
##莱
##莲
##莴
##获
##莹
##莺
##莽
##莿
##菀
##菁
##菅
##菇
##菈
##菊
##菌
##菏
##菓
##菖
##菘
##菜
##菟
##菠
##菡
##菩
##華
##菱
##菲
##菸
##菽
##萁
##萃
##萄
##萊
##萋
##萌
##萍
##萎
##萘
##萝
##萤
##营
##萦
##萧
##萨
##萩
##萬
##萱
##萵
##萸
##萼
##落
##葆
##葉
##著
##葚
##葛
##葡
##董
##葦
##葩
##葫
##葬
##葭
##葯
##葱
##葳
##葵
##葷
##葺
##蒂
##蒋
##蒐
##蒔
##蒙
##蒜
##蒞
##蒟
##蒡
##蒨
##蒲
##蒸
##蒹
##蒻
##蒼
##蒿
##蓁
##蓄
##蓆
##蓉
##蓋
##蓑
##蓓
##蓖
##蓝
##蓟
##蓦
##蓬
##蓮
##蓼
##蓿
##蔑
##蔓
##蔔
##蔗
##蔘
##蔚
##蔡
##蔣
##蔥
##蔫
##蔬
##蔭
##蔵
##蔷
##蔺
##蔻
##蔼
##蔽
##蕁
##蕃
##蕈
##蕉
##蕊
##蕎
##蕙
##蕤
##蕨
##蕩
##蕪
##蕭
##蕲
##蕴
##蕻
##蕾
##薄
##薅
##薇
##薈
##薊
##薏
##薑
##薔
##薙
##薛
##薦
##薨
##薩
##薪
##薬
##薯
##薰
##薹
##藉
##藍
##藏
##藐
##藓
##藕
##藜
##藝
##藤
##藥
##藩
##藹
##藻
##藿
##蘆
##蘇
##蘊
##蘋
##蘑
##蘚
##蘭
##蘸
##蘼
##蘿
##虎
##虏
##虐
##虑
##虔
##處
##虚
##虛
##虜
##虞
##號
##虢
##虧
##虫
##虬
##虱
##虹
##虻
##虽
##虾
##蚀
##蚁
##蚂
##蚊
##蚌
##蚓
##蚕
##蚜
##蚝
##蚣
##蚤
##蚩
##蚪
##蚯
##蚱
##蚵
##蛀
##蛆
##蛇
##蛊
##蛋
##蛎
##蛐
##蛔
##蛙
##蛛
##蛟
##蛤
##蛭
##蛮
##蛰
##蛳
##蛹
##蛻
##蛾
##蜀
##蜂
##蜃
##蜆
##蜇
##蜈
##蜊
##蜍
##蜒
##蜓
##蜕
##蜗
##蜘
##蜚
##蜜
##蜡
##蜢
##蜥
##蜱
##蜴
##蜷
##蜻
##蜿
##蝇
##蝈
##蝉
##蝌
##蝎
##蝕
##蝗
##蝙
##蝟
##蝠
##蝦
##蝨
##蝴
##蝶
##蝸
##蝼
##螂
##螃
##融
##螞
##螢
##螨
##螯
##螳
##螺
##蟀
##蟄
##蟆
##蟋
##蟎
##蟑
##蟒
##蟠
##蟬
##蟲
##蟹
##蟻
##蟾
##蠅
##蠍
##蠔
##蠕
##蠛
##蠟
##蠡
##蠢
##蠣
##蠱
##蠶
##蠹
##蠻
##血
##衄
##衅
##衆
##行
##衍
##術
##衔
##街
##衙
##衛
##衝
##衞
##衡
##衢
##衣
##补
##表
##衩
##衫
##衬
##衮
##衰
##衲
##衷
##衹
##衾
##衿
##袁
##袂
##袄
##袅
##袈
##袋
##袍
##袒
##袖
##袜
##袞
##袤
##袪
##被
##袭
##袱
##裁
##裂
##装
##裆
##裊
##裏
##裔
##裕
##裘
##裙
##補
##裝
##裟
##裡
##裤
##裨
##裱
##裳
##裴
##裸
##裹
##製
##裾
##褂
##複
##褐
##褒
##褓
##褔
##褚
##褥
##褪
##褫
##褲
##褶
##褻
##襁
##襄
##襟
##襠
##襪
##襬
##襯
##襲
##西
##要
##覃
##覆
##覇
##見
##規
##覓
##視
##覚
##覦
##覧
##親
##覬
##観
##覷
##覺
##覽
##觀
##见
##观
##规
##觅
##视
##览
##觉
##觊
##觎
##觐
##觑
##角
##觞
##解
##觥
##触
##觸
##言
##訂
##計
##訊
##討
##訓
##訕
##訖
##託
##記
##訛
##訝
##訟
##訣
##訥
##訪
##設
##許
##訳
##訴
##訶
##診
##註
##証
##詆
##詐
##詔
##評
##詛
##詞
##詠
##詡
##詢
##詣
##試
##詩
##詫
##詬
##詭
##詮
##詰
##話
##該
##詳
##詹
##詼
##誅
##誇
##誉
##誌
##認
##誓
##誕
##誘
##語
##誠
##誡
##誣
##誤
##誥
##誦
##誨
##說
##説
##読
##誰
##課
##誹
##誼
##調
##諄
##談
##請
##諏
##諒
##論
##諗
##諜
##諡
##諦
##諧
##諫
##諭
##諮
##諱
##諳
##諷
##諸
##諺
##諾
##謀
##謁
##謂
##謄
##謊
##謎
##謐
##謔
##謗
##謙
##講
##謝
##謠
##謨
##謬
##謹
##謾
##譁
##證
##譎
##譏
##識
##譙
##譚
##譜
##警
##譬
##譯
##議
##譲
##譴
##護
##譽
##讀
##變
##讓
##讚
##讞
##计
##订
##认
##讥
##讧
##讨
##让
##讪
##讫
##训
##议
##讯
##记
##讲
##讳
##讴
##讶
##讷
##许
##讹
##论
##讼
##讽
##设
##访
##诀
##证
##诃
##评
##诅
##识
##诈
##诉
##诊
##诋
##词
##诏
##译
##试
##诗
##诘
##诙
##诚
##诛
##话
##诞
##诟
##诠
##诡
##询
##诣
##诤
##该
##详
##诧
##诩
##诫
##诬
##语
##误
##诰
##诱
##诲
##说
##诵
##诶
##请
##诸
##诺
##读
##诽
##课
##诿
##谀
##谁
##调
##谄
##谅
##谆
##谈
##谊
##谋
##谌
##谍
##谎
##谏
##谐
##谑
##谒
##谓
##谔
##谕
##谗
##谘
##谙
##谚
##谛
##谜
##谟
##谢
##谣
##谤
##谥
##谦
##谧
##谨
##谩
##谪
##谬
##谭
##谯
##谱
##谲
##谴
##谶
##谷
##豁
##豆
##豇
##豈
##豉
##豊
##豌
##豎
##豐
##豔
##豚
##象
##豢
##豪
##豫
##豬
##豹
##豺
##貂
##貅
##貌
##貓
##貔
##貘
##貝
##貞
##負
##財
##貢
##貧
##貨
##販
##貪
##貫
##責
##貯
##貰
##貳
##貴
##貶
##買
##貸
##費
##貼
##貽
##貿
##賀
##賁
##賂
##賃
##賄
##資
##賈
##賊
##賑
##賓
##賜
##賞
##賠
##賡
##賢
##賣
##賤
##賦
##質
##賬
##賭
##賴
##賺
##購
##賽
##贅
##贈
##贊
##贍
##贏
##贓
##贖
##贛
##贝
##贞
##负
##贡
##财
##责
##贤
##败
##账
##货
##质
##贩
##贪
##贫
##贬
##购
##贮
##贯
##贰
##贱
##贲
##贴
##贵
##贷
##贸
##费
##贺
##贻
##贼
##贾
##贿
##赁
##赂
##赃
##资
##赅
##赈
##赊
##赋
##赌
##赎
##赏
##赐
##赓
##赔
##赖
##赘
##赚
##赛
##赝
##赞
##赠
##赡
##赢
##赣
##赤
##赦
##赧
##赫
##赭
##走
##赳
##赴
##赵
##赶
##起
##趁
##超
##越
##趋
##趕
##趙
##趟
##趣
##趨
##足
##趴
##趵
##趸
##趺
##趾
##跃
##跄
##跆
##跋
##跌
##跎
##跑
##跖
##跚
##跛
##距
##跟
##跡
##跤
##跨
##跩
##跪
##路
##跳
##践
##跷
##跹
##跺
##跻
##踉
##踊
##踌
##踏
##踐
##踝
##踞
##踟
##踢
##踩
##踪
##踮
##踱
##踴
##踵
##踹
##蹂
##蹄
##蹇
##蹈
##蹉
##蹊
##蹋
##蹑
##蹒
##蹙
##蹟
##蹣
##蹤
##蹦
##蹩
##蹬
##蹭
##蹲
##蹴
##蹶
##蹺
##蹼
##蹿
##躁
##躇
##躉
##躊
##躋
##躍
##躏
##躪
##身
##躬
##躯
##躲
##躺
##軀
##車
##軋
##軌
##軍
##軒
##軟
##転
##軸
##軼
##軽
##軾
##較
##載
##輒
##輓
##輔
##輕
##輛
##輝
##輟
##輩
##輪
##輯
##輸
##輻
##輾
##輿
##轄
##轅
##轆
##轉
##轍
##轎
##轟
##车
##轧
##轨
##轩
##转
##轭
##轮
##软
##轰
##轲
##轴
##轶
##轻
##轼
##载
##轿
##较
##辄
##辅
##辆
##辇
##辈
##辉
##辊
##辍
##辐
##辑
##输
##辕
##辖
##辗
##辘
##辙
##辛
##辜
##辞
##辟
##辣
##辦
##辨
##辩
##辫
##辭
##辮
##辯
##辰
##辱
##農
##边
##辺
##辻
##込
##辽
##达
##迁
##迂
##迄
##迅
##过
##迈
##迎
##运
##近
##返
##还
##这
##进
##远
##违
##连
##迟
##迢
##迤
##迥
##迦
##迩
##迪
##迫
##迭
##述
##迴
##迷
##迸
##迹
##迺
##追
##退
##送
##适
##逃
##逅
##逆
##选
##逊
##逍
##透
##逐
##递
##途
##逕
##逗
##這
##通
##逛
##逝
##逞
##速
##造
##逢
##連
##逮
##週
##進
##逵
##逶
##逸
##逻
##逼
##逾
##遁
##遂
##遅
##遇
##遊
##運
##遍
##過
##遏
##遐
##遑
##遒
##道
##達
##違
##遗
##遙
##遛
##遜
##遞
##遠
##遢
##遣
##遥
##遨
##適
##遭
##遮
##遲
##遴
##遵
##遶
##遷
##選
##遺
##遼
##遽
##避
##邀
##邁
##邂
##邃
##還
##邇
##邈
##邊
##邋
##邏
##邑
##邓
##邕
##邛
##邝
##邢
##那
##邦
##邨
##邪
##邬
##邮
##邯
##邰
##邱
##邳
##邵
##邸
##邹
##邺
##邻
##郁
##郅
##郊
##郎
##郑
##郜
##郝
##郡
##郢
##郤
##郦
##郧
##部
##郫
##郭
##郴
##郵
##郷
##郸
##都
##鄂
##鄉
##鄒
##鄔
##鄙
##鄞
##鄢
##鄧
##鄭
##鄰
##鄱
##鄲
##鄺
##酉
##酊
##酋
##酌
##配
##酐
##酒
##酗
##酚
##酝
##酢
##酣
##酥
##酩
##酪
##酬
##酮
##酯
##酰
##酱
##酵
##酶
##酷
##酸
##酿
##醃
##醇
##醉
##醋
##醍
##醐
##醒
##醚
##醛
##醜
##醞
##醣
##醪
##醫
##醬
##醮
##醯
##醴
##醺
##釀
##釁
##采
##釉
##释
##釋
##里
##重
##野
##量
##釐
##金
##釗
##釘
##釜
##針
##釣
##釦
##釧
##釵
##鈀
##鈉
##鈍
##鈎
##鈔
##鈕
##鈞
##鈣
##鈦
##鈪
##鈴
##鈺
##鈾
##鉀
##鉄
##鉅
##鉉
##鉑
##鉗
##鉚
##鉛
##鉤
##鉴
##鉻
##銀
##銃
##銅
##銑
##銓
##銖
##銘
##銜
##銬
##銭
##銮
##銳
##銷
##銹
##鋁
##鋅
##鋒
##鋤
##鋪
##鋰
##鋸
##鋼
##錄
##錐
##錘
##錚
##錠
##錢
##錦
##錨
##錫
##錮
##錯
##録
##錳
##錶
##鍊
##鍋
##鍍
##鍛
##鍥
##鍰
##鍵
##鍺
##鍾
##鎂
##鎊
##鎌
##鎏
##鎔
##鎖
##鎗
##鎚
##鎧
##鎬
##鎮
##鎳
##鏈
##鏖
##鏗
##鏘
##鏞
##鏟
##鏡
##鏢
##鏤
##鏽
##鐘
##鐮
##鐲
##鐳
##鐵
##鐸
##鐺
##鑄
##鑊
##鑑
##鑒
##鑣
##鑫
##鑰
##鑲
##鑼
##鑽
##鑾
##鑿
##针
##钉
##钊
##钎
##钏
##钒
##钓
##钗
##钙
##钛
##钜
##钝
##钞
##钟
##钠
##钡
##钢
##钣
##钤
##钥
##钦
##钧
##钨
##钩
##钮
##钯
##钰
##钱
##钳
##钴
##钵
##钺
##钻
##钼
##钾
##钿
##铀
##铁
##铂
##铃
##铄
##铅
##铆
##铉
##铎
##铐
##铛
##铜
##铝
##铠
##铡
##铢
##铣
##铤
##铨
##铩
##铬
##铭
##铮
##铰
##铲
##铵
##银
##铸
##铺
##链
##铿
##销
##锁
##锂
##锄
##锅
##锆
##锈
##锉
##锋
##锌
##锏
##锐
##锑
##错
##锚
##锟
##锡
##锢
##锣
##锤
##锥
##锦
##锭
##键
##锯
##锰
##锲
##锵
##锹
##锺
##锻
##镀
##镁
##镂
##镇
##镉
##镌
##镍
##镐
##镑
##镕
##镖
##镗
##镛
##镜
##镣
##镭
##镯
##镰
##镳
##镶
##長
##长
##門
##閃
##閉
##開
##閎
##閏
##閑
##閒
##間
##閔
##閘
##閡
##関
##閣
##閥
##閨
##閩
##閱
##閲
##閹
##閻
##閾
##闆
##闇
##闊
##闌
##闍
##闔
##闕
##闖
##闘
##關
##闡
##闢
##门
##闪
##闫
##闭
##问
##闯
##闰
##闲
##间
##闵
##闷
##闸
##闹
##闺
##闻
##闽
##闾
##阀
##阁
##阂
##阅
##阆
##阇
##阈
##阉
##阎
##阐
##阑
##阔
##阕
##阖
##阙
##阚
##阜
##队
##阡
##阪
##阮
##阱
##防
##阳
##阴
##阵
##阶
##阻
##阿
##陀
##陂
##附
##际
##陆
##陇
##陈
##陋
##陌
##降
##限
##陕
##陛
##陝
##陞
##陟
##陡
##院
##陣
##除
##陨
##险
##陪
##陰
##陲
##陳
##陵
##陶
##陷
##陸
##険
##陽
##隅
##隆
##隈
##隊
##隋
##隍
##階
##随
##隐
##隔
##隕
##隘
##隙
##際
##障
##隠
##隣
##隧
##隨
##險
##隱
##隴
##隶
##隸
##隻
##隼
##隽
##难
##雀
##雁
##雄
##雅
##集
##雇
##雉
##雋
##雌
##雍
##雎
##雏
##雑
##雒
##雕
##雖
##雙
##雛
##雜
##雞
##離
##難
##雨
##雪
##雯
##雰
##雲
##雳
##零
##雷
##雹
##電
##雾
##需
##霁
##霄
##霆
##震
##霈
##霉
##霊
##霍
##霎
##霏
##霑
##霓
##霖
##霜
##霞
##霧
##霭
##霰
##露
##霸
##霹
##霽
##霾
##靂
##靄
##靈
##青
##靓
##靖
##静
##靚
##靛
##靜
##非
##靠
##靡
##面
##靥
##靦
##革
##靳
##靴
##靶
##靼
##鞅
##鞋
##鞍
##鞏
##鞑
##鞘
##鞠
##鞣
##鞦
##鞭
##韆
##韋
##韌
##韓
##韜
##韦
##韧
##韩
##韬
##韭
##音
##韵
##韶
##韻
##響
##頁
##頂
##頃
##項
##順
##須
##頌
##預
##頑
##頒
##頓
##頗
##領
##頜
##頡
##頤
##頫
##頭
##頰
##頷
##頸
##頹
##頻
##頼
##顆
##題
##額
##顎
##顏
##顔
##願
##顛
##類
##顧
##顫
##顯
##顱
##顴
##页
##顶
##顷
##项
##顺
##须
##顼
##顽
##顾
##顿
##颁
##颂
##预
##颅
##领
##颇
##颈
##颉
##颊
##颌
##颍
##颐
##频
##颓
##颔
##颖
##颗
##题
##颚
##颛
##颜
##额
##颞
##颠
##颡
##颢
##颤
##颦
##颧
##風
##颯
##颱
##颳
##颶
##颼
##飄
##飆
##风
##飒
##飓
##飕
##飘
##飙
##飚
##飛
##飞
##食
##飢
##飨
##飩
##飪
##飯
##飲
##飼
##飽
##飾
##餃
##餅
##餉
##養
##餌
##餐
##餒
##餓
##餘
##餚
##餛
##餞
##餡
##館
##餮
##餵
##餾
##饅
##饈
##饋
##饌
##饍
##饑
##饒
##饕
##饗
##饞
##饥
##饨
##饪
##饬
##饭
##饮
##饯
##饰
##饱
##饲
##饴
##饵
##饶
##饷
##饺
##饼
##饽
##饿
##馀
##馁
##馄
##馅
##馆
##馈
##馋
##馍
##馏
##馒
##馔
##首
##馗
##香
##馥
##馨
##馬
##馭
##馮
##馳
##馴
##駁
##駄
##駅
##駆
##駐
##駒
##駕
##駛
##駝
##駭
##駱
##駿
##騁
##騎
##騏
##験
##騙
##騨
##騰
##騷
##驀
##驅
##驊
##驍
##驒
##驕
##驗
##驚
##驛
##驟
##驢
##驥
##马
##驭
##驮
##驯
##驰
##驱
##驳
##驴
##驶
##驷
##驸
##驹
##驻
##驼
##驾
##驿
##骁
##骂
##骄
##骅
##骆
##骇
##骈
##骊
##骋
##验
##骏
##骐
##骑
##骗
##骚
##骛
##骜
##骞
##骠
##骡
##骤
##骥
##骧
##骨
##骯
##骰
##骶
##骷
##骸
##骼
##髂
##髅
##髋
##髏
##髒
##髓
##體
##髖
##高
##髦
##髪
##髮
##髯
##髻
##鬃
##鬆
##鬍
##鬓
##鬚
##鬟
##鬢
##鬣
##鬥
##鬧
##鬱
##鬼
##魁
##魂
##魄
##魅
##魇
##魍
##魏
##魔
##魘
##魚
##魯
##魷
##鮑
##鮨
##鮪
##鮭
##鮮
##鯉
##鯊
##鯖
##鯛
##鯨
##鯰
##鯽
##鰍
##鰓
##鰭
##鰲
##鰻
##鰾
##鱈
##鱉
##鱔
##鱗
##鱷
##鱸
##鱼
##鱿
##鲁
##鲈
##鲍
##鲑
##鲛
##鲜
##鲟
##鲢
##鲤
##鲨
##鲫
##鲱
##鲲
##鲶
##鲷
##鲸
##鳃
##鳄
##鳅
##鳌
##鳍
##鳕
##鳖
##鳗
##鳝
##鳞
##鳥
##鳩
##鳳
##鳴
##鳶
##鴉
##鴕
##鴛
##鴦
##鴨
##鴻
##鴿
##鵑
##鵜
##鵝
##鵡
##鵬
##鵰
##鵲
##鶘
##鶩
##鶯
##鶴
##鷗
##鷲
##鷹
##鷺
##鸚
##鸞
##鸟
##鸠
##鸡
##鸢
##鸣
##鸥
##鸦
##鸨
##鸪
##鸭
##鸯
##鸳
##鸵
##鸽
##鸾
##鸿
##鹂
##鹃
##鹄
##鹅
##鹈
##鹉
##鹊
##鹌
##鹏
##鹑
##鹕
##鹘
##鹜
##鹞
##鹤
##鹦
##鹧
##鹫
##鹭
##鹰
##鹳
##鹵
##鹹
##鹼
##鹽
##鹿
##麂
##麋
##麒
##麓
##麗
##麝
##麟
##麥
##麦
##麩
##麴
##麵
##麸
##麺
##麻
##麼
##麽
##麾
##黃
##黄
##黍
##黎
##黏
##黑
##黒
##黔
##默
##黛
##黜
##黝
##點
##黠
##黨
##黯
##黴
##鼋
##鼎
##鼐
##鼓
##鼠
##鼬
##鼹
##鼻
##鼾
##齁
##齊
##齋
##齐
##齒
##齡
##齢
##齣
##齦
##齿
##龄
##龅
##龈
##龊
##龋
##龌
##龍
##龐
##龔
##龕
##龙
##龚
##龛
##龜
##龟
##︰
##︱
##︶
##︿
##﹁
##﹂
##﹍
##﹏
##﹐
##﹑
##﹒
##﹔
##﹕
##﹖
##﹗
##﹙
##﹚
##﹝
##﹞
##﹡
##﹣
##！
##＂
##＃
##＄
##％
##＆
##＇
##（
##）
##＊
##，
##－
##．
##／
##：
##；
##＜
##？
##＠
##［
##＼
##］
##＾
##＿
##｀
##ｆ
##ｈ
##ｊ
##ｕ
##ｗ
##ｚ
##｛
##｝
##｡
##｢
##｣
##､
##･
##ｯ
##ｰ
##ｲ
##ｸ
##ｼ
##ｽ
##ﾄ
##ﾉ
##ﾌ
##ﾗ
##ﾙ
##ﾝ
##ﾞ
##ﾟ
##￣
##￥
##👍
##🔥
##😂
##😎
##⿱
##&CDP-8BBF;
##⿹
##C
##D
##P
##B
##F
##刃
##&CDP-895C;
##⿰
##氶
##䒑
##&CDP-8A65;
##&CDP-8CC6;
##A
##&GT-00458;
##G
##T
##&CDP-8BF1;
##⺄
##&CDP-8969;
##&CDP-89BC;
##&CDP-8BDE;
##E
##&RUI6-E00E;
##R
##U
##I
##⿴
##⿵
##冂
##&CDP-89B2;
##⿳
##厶
##丷
##&CDP-89DE;
##&CDP-89AB;
##&CDP-89ED;
##⿸
##𠂆
##𠂉
##乚
##乊
##⿺
##乛
##𠦝
##爫
##&CDP-8B5B;
##&CDP-89BD;
##&CDP-8C7D;
##粦
##&CDP-8DD8;
##亅
##&CDP-8BFE;
##丂
##𠀁
##丌
##&CDP-8959;
##厽
##亠
##&GT-00154;
##&CDP-8CB5;
##乁
##冖
##&CDP-8CED;
##朩
##乇
##&CDP-8B67;
##㐭
##&CDP-8CDE;
##舋
##𠃊
##⺅
##&CDP-8BA2;
##亽
##&CDP-8971;
##㔾
##龴
##&CDP-89EB;
##刄
##卬
##&CDP-89E3;
##殳
##卆
##&CDP-8A64;
##㝉
##尒
##&CDP-8BAD;
##&CDP-8AFC;
##仚
##&CDP-8DA7;
##夅
##䏌
##㡯
##&GT-10942;
##𠕁
##&CDP-8BD5;
##&CDP-89E2;
##&CDP-8BC7;
##⺉
##&CDP-8D4C;
##夋
##仌
##巠
##甹
##刖
##&CDP-8CDD;
##&CDP-8B7A;
##夂
##彡
##戔
##幷
##&CDP-89CE;
##忩
##咅
##隹
##疌
##直
##夌
##具
##&GT-00767;
##爯
##匽
##耎
##叚
##曷
##昜
##咢
##臿
##枼
##奓
##畐
##怱
##咠
##耑
##兪
##昝
##&GT-67403;
##&CDP-8B68;
##⺊
##虒
##眘
##尃
##冓
##隺
##&CDP-88A6;
##&CDP-8C73;
##䍃
##𦐇
##竝
##悤
##&CDP-8CBE;
##&GT-K00059;
##K
##&CDP-8BD3;
##&CB08880;
##翏
##&CDP-8DA9;
##𨊴
##菐
##&CDP-8CF2;
##矞
##朁
##覀
##&CDP-8DAA;
##黽
##喿
##亶
##睘
##僉
##敫
##𠚍
##&CDP-8CE3;
##巤
##畾
##麃
##㚘
##駦
##蒍
##毚
##巂
##⺧
##⺌
##&CDP-8BCB;
##&CDP-89B9;
##⿷
##𠑷
##兂
##&GT-K05014;
##&CDP-8BC5;
##⿲
##&CDP-8C62;
##&CDP-8958;
##巜
##&CDP-8A60;
##龷
##&GT-K00264;
##&CDP-8B72;
##&CDP-8BA5;
##&CDP-89E0;
##𠮛
##𠄠
##𠂇
##㐅
##&CDP-8C58;
##&CDP-8A78;
##冃
##&CDP-8BB7;
##皀
##&CDP-8DB7;
##豕
##豖
##&CDP-8DD7;
##舄
##冫
##夬
##犮
##垔
##󠄀
##熈
##&GT-K00064;
##⺇
##&CDP-8964;
##&GT-K00369;
##&CDP-896D;
##⿶
##凵
##屮
##&GT-K02033;
##丵
##&CDP-8DE4;
##𠃌
##&CDP-897C;
##𠚪
##衤
##𠮠
##戋
##𢀖
##刅
##朶
##&CDP-89EC;
##𡰯
##&CDP-8BFA;
##朿
##&CDP-8C42;
##肙
##𣏂
##呙
##𥝢
##彔
##&C2-286B;
##&GT-K03992;
##斉
##砉
##咼
##荅
##&C2-2A3E;
##𠩺
##豦
##&CDP-8D69;
##蒦
##&GT-K01418;
##&GT-K01443;
##&CDP-8970;
##坴
##&C1-454B;
##&CDP-8C64;
##贳
##&C1-5751;
##&GT-18140;
##&CDP-8BE3;
##埶
##⿻
##&C1-622F;
##絭
##劦
##雚
##勹
##&CDP-89A6;
##亾
##&CDP-89D5;
##缶
##&CDP-8B7C;
##躳
##𠤎
##&CDP-8CE8;
##匚
##㞷
##曶
##𡙗
##妟
##廾
##&CDP-89BE;
##&CDP-8BD9;
##&CDP-8BDC;
##䜌
##囙
##卩
##&CDP-8CBD;
##𠂋
##&CDP-8D41;
##&CDP-8CAC;
##厃
##𠂑
##卪
##𦈢
##桼
##圡
##尨
##&CDP-8DC6;
##&CDP-8BC4;
##秝
##欮
##猒
##&CDP-8962;
##𠩵
##厸
##𤰔
##&M-03088;
##M
##&CDP-8CD9;
##&CDP-8BB8;
##丩
##&CDP-89B3;
##&CDP-89F6;
##&CDP-8DDD;
##尗
##&CDP-89BB;
##&CDP-8C7A;
##&CDP-8C79;
##宀
##𠬝
##&CDP-8D70;
##𦥔
##&CDP-8AA8;
##&CDP-8974;
##𠔼
##&CDP-8BD6;
##厷
##&CDP-8CD5;
##&CDP-89F5;
##攵
##戹
##⺆
##𠮷
##吅
##冎
##𢦏
##𠂢
##卝
##寽
##&CDP-8CC1;
##皁
##厓
##&CDP-8C6C;
##𢼄
##匋
##&CDP-8D77;
##叕
##斦
##弇
##彖
##壴
##卽
##呴
##&CDP-88A5;
##呑
##冋
##𣪊
##&CDP-8D5B;
##盍
##鬲
##昷
##&CDP-8DBB;
##&CDP-8ACC;
##羗
##欶
##啇
##虖
##戞
##粛
##觜
##臯
##&CDP-8DAE;
##絜
##翕
##皐
##&CDP-8BD2;
##筮
##遝
##疐
##𤴡
##&CDP-8B65;
##罅
##罒
##蠆
##&CDP-8CA3;
##齧
##&CDP-8C78;
##&CDP-8CC8;
##&CDP-8BC0;
##&CDP-89CC;
##貟
##啚
##囬
##&GT-K00199;
##⺃
##&CDP-88F1;
##&CDP-89DB;
##巛
##龸
##圥
##𠂤
##𠧗
##㐫
##夆
##&CDP-8852;
##⺘
##&GT-39726;
##臽
##臤
##&CDP-8A6D;
##罙
##陏
##敄
##㚇
##&GT-K05506;
##&CDP-89AE;
##冡
##𡨄
##浧
##&CDP-895F;
##畣
##曽
##䧘
##&CDP-8CF6;
##&CDP-8D79;
##楙
##㐮
##㕡
##褱
##㕓
##𤳳
##丬
##爿
##𠃜
##冗
##&CDP-8A49;
##&CDP-8DE8;
##&CDP-8D53;
##&CDP-8A4E;
##&GT-36329;
##㐄
##𦣻
##&CDP-8CAF;
##&CDP-88FD;
##&GT-K00439;
##𦥑
##夒
##&GT-12503;
##&CDP-89F3;
##⺫
##&CDP-8BE9;
##夨
##&CDP-8BF5;
##&CDP-8CE9;
##镸
##&CDP-8CC5;
##夰
##&CDP-8D7C;
##釆
##&GT-09355;
##&CDP-8CDC;
##𦋹
##冘
##&C1-4464;
##&GT-09429;
##夗
##&CDP-89E5;
##&GT-11066;
##𠂔
##𦍌
##&CDP-8B6A;
##奻
##㚣
##𦣞
##幵
##呉
##&CDP-89C5;
##匊
##忝
##𣶒
##&CDP-8AC0;
##&GT-00145;
##𣬉
##𥁕
##罓
##悘
##殹
##&GT-03447;
##雩
##戠
##&CDP-8D76;
##&CDP-8DB6;
##賏
##𣎆
##慝
##&C5-537C;
##霝
##簋
##韱
##&CDP-8D52;
##耂
##孨
##辥
##&CDP-8BC8;
##&CDP-8BCE;
##&GT-K01090;
##&CDP-8BE2;
##&CDP-85A7;
##&CDP-8CE6;
##丆
##㼌
##&CDP-8DE0;
##寍
##萈
##&GT-26769;
##&CDP-8CD6;
##&CDP-897D;
##&CDP-8BC3;
##&CDP-8BD0;
##&CDP-8CFA;
##&CDP-8BBD;
##乀
##&CDP-8665;
##昚
##尢
##&CDP-8DEF;
##&CDP-89D9;
##卄
##&CDP-8C52;
##凷
##彳
##&CDP-8CE5;
##&AJ1-19346;
##J
##𢕪
##&CDP-8CCF;
##贔
##屮
##&CDP-8CC7;
##厈
##⺨
##&CDP-8CBB;
##&CDP-8BF8;
##𣢟
##&CDP-8CB3;
##竒
##屾
##&CDP-894F;
##尞
##戢
##&CDP-8D6D;
##髜
##顚
##辶
##&CDP-8D46;
##&CDP-89C8;
##⺶
##㐬
##𦣝
##&CDP-8968;
##帀
##彐
##&CDP-8BEC;
##&CDP-89D7;
##&CDP-8D40;
##丗
##&CDP-8C4B;
##旲
##&CDP-8CAD;
##𢆶
##&CDP-8BA4;
##&CDP-8DE2;
##&CDP-8C46;
##&CDP-8D67;
##&CDP-8DCB;
##枀
##&CDP-8AC4;
##&CDP-8D56;
##&CDP-8DBF;
##旣
##尌
##&CDP-8DC3;
##雝
##廴
##&CDP-8D62;
##&CDP-8BBC;
##弍
##弚
##𠬢
##&CDP-8CC4;
##&CDP-8C60;
##&CDP-8C65;
##㐁
##矤
##畺
##彑
##⺢
##𧰨
##&GT-35079;
##&CDP-8D5A;
##&CDP-8B7B;
##&CDP-8ACD;
##歨
##&CDP-8BB0;
##&CDP-8CEF;
##&AJ1-17632;
##𢾰
##訔
##⺖
##&GT-K00233;
##戉
##𠫤
##&GT-K01770;
##坒
##&CDP-8DD5;
##㝁
##昬
##敃
##匧
##勑
##圂
##虍
##㒼
##&CDP-8D57;
##𠗦
##&CDP-8CD4;
##徝
##猌
##𢽟
##𡩜
##&CB00024;
##&C3-433D;
##銛
##韯
##瞢
##贑
##&CDP-8CB1;
##卂
##&CDP-8AF0;
##仒
##&CDP-8DC2;
##㐱
##㐌
##&CDP-8CE7;
##龵
##&CDP-89BA;
##𡿪
##穵
##&C3-2731;
##𢆍
##圼
##&M-03151;
##&CDP-8CA4;
##𢪒
##匂
##⻏
##𧈡
##訇
##&GT-K01231;
##钅
##&M-28120;
##烕
##屖
##窊
##虘
##瓠
##&CDP-8BE0;
##畧
##軗
##牚
##叅
##軬
##毳
##&GT-29926;
##𣪠
##筴
##&CDP-8D50;
##歋
##賛
##輦
##麇
##褰
##麕
##攴
##𡥉
##&CDP-8DB2;
##㡀
##&CDP-8C5B;
##&CDP-8CEC;
##&CDP-8CE0;
##&CDP-8DCE;
##&CDP-89C6;
##蚉
##𠁁
##&CDP-8C69;
##㡭
##厼
##&CDP-8C66;
##疋
##旡
##㞢
##𡗜
##卭
##&CDP-8DAB;
##&CDP-8BC6;
##尭
##𣈅
##氺
##厤
##𣅽
##夲
##冝
##匃
##&CDP-8D61;
##&CDP-8CBF;
##&CDP-8B63;
##&GT-37565;
##屰
##𣎳
##冄
##󠄁
##叧
##&CDP-89E4;
##⺡
##氿
##&CDP-8BFD;
##匛
##&CDP-89AD;
##&CDP-8D5F;
##杲
##&C3-2378;
##邜
##&CDP-89DD;
##𠯑
##丣
##&CDP-8D71;
##&CDP-8DBC;
##巵
##&CDP-8DA8;
##𠫓
##囷
##&GT-11695;
##&GT-11674;
##&GT-08923;
##𥁑
##𠳮
##𣴎
##讠
##&CDP-8BF4;
##桹
##棥
##羕
##莑
##䇠
##&GT-21319;
##&CDP-8965;
##䙳
##&CDP-8BBE;
##畱
##袲
##惢
##焭
##兠
##纟
##&CDP-8D6E;
##⻖
##煔
##輂
##䓤
##奩
##㕑
##&CDP-8BEF;
##蓲
##閭
##&M-48848;
##擧
##&CDP-8D42;
##&CDP-8CCA;
##&CDP-8C6A;
##柰
##𣥂
##&CDP-8CB8;
##𣥖
##&CDP-8CAB;
##&CDP-8BA1;
##&CDP-8CE4;
##&CDP-8DDE;
##&CDP-8DA1;
##𡱒
##軎
##&C4-354D;
##䊆
##&GT-21437;
##龶
##&CDP-8CD1;
##毟
##㲎
##宐
##亐
##丏
##阞
##&C3-235C;
##𢎀
##旰
##宊
##&GT-14766;
##㦿
##&C3-2A7E;
##沝
##黾
##洰
##兗
##斿
##眇
##𦚏
##狊
##&CDP-8DAF;
##羑
##亯
##&CDP-8DB4;
##𡿧
##𡕖
##𢼸
##畟
##𡌥
##⺳
##&CDP-8DA4;
##埜
##窐
##&GT-K02140;
##歮
##嵒
##舃
##㬅
##亷
##夤
##靘
##&GT-32448;
##㬱
##滎
##賔
##䦚
##隤
##翬
##廛
##𠾂
##韰
##翯
##頽
##縠
##涑
##罽
##龠
##闎
##鬵
##廌
##澋
##鎣
##蟺
##顥
##&CDP-88F0;
##&CDP-8D7D;
##𠔾
##&CDP-89DF;
##戺
##&GT-K03616;
##炏
##&CDP-8BB5;
##昍
##&M-08757;
##昫
##㒸
##𣧄
##巸
##臦
##䝱
##豩
##槀
##&CDP-8B64;
##曅
##&CDP-88D6;
##&CDP-8BA9;
##&CDP-89FE;
##&CDP-8D6F;
##牪
##雔
##讎
##𡈼
##𠕋
##㹜
##&CDP-8CCB;
##𤔇
##&GT-K01457;
##畄
##嘼
##鬳
##蘄
##&CDP-8D55;
##⺩
##玨
##充
##&CDP-8BEA;
##&CDP-894E;
##&CDP-8DA6;
##&GT-08898;
##彘
##敻
##燾
##䖵
##&GT-09854;
##&CDP-8D60;
##&CDP-88C8;
##&CDP-8C45;
##甡
##&CDP-8A43;
##&CDP-89B6;
##&CDP-8D5E;
##&CDP-8DB8;
##⺪
##&CDP-8CCE;
##疒
##匸
##𣏟
##恝
##&CDP-85F8;
##㤲
##&GT-06861;
##臠
##癶
##&CDP-89FD;
##&CDP-8B7D;
##𠦂
##皛
##夃
##&CDP-8CF0;
##圤
##&CDP-8D58;
##&CDP-8CA5;
##畎
##&CDP-8CC9;
##&CDP-8B56;
##酓
##&CDP-8CF4;
##𢿐
##&CDP-8C41;
##&CDP-8C76;
##&CDP-88C5;
##&GT-17214;
##臱
##闞
##&CDP-8AEF;
##岢
##蒪
##&GT-59327;
##駮
##⺭
##⻢
##&CDP-8C4F;
##禸
##⺣
##&CDP-8D78;
##&C3-2A3E;
##&C3-2548;
##&GT-29752;
##&C6-415B;
##欵
##&CDP-8ACE;
##&CDP-8BE8;
##𩰬
##&CDP-8CFE;
##⺮
##&C3-2179;
##⻌
##&CDP-8C6F;
##笓
##匤
##&CDP-8CAE;
##㓣
##拑
##&CDP-8D49;
##𣐝
##烝
##捭
##屛
##𣄃
##虡
##輅
##𤿺
##搆
##耤
##縢
##靃
##龥
##&CDP-8DB9;
##&CDP-8DAD;
##&GT-K07616;
##&GT-08985;
##𦓔
##𣫞
##籴
##粜
##糹
##&CDP-8CEA;
##㓞
##豸
##𠑽
##者
##&CDP-8C6D;
##&CDP-8DDC;
##頝
##&GT-00035;
##&CDP-8A66;
##㢆
##&M-01347;
##&CDP-8D7E;
##⺲
##&CDP-8DB0;
##&CDP-8AD6;
##䩭
##䩻
##⺼
##&GT-K01352;
##&CDP-8DBA;
##羴
##&CDP-89C1;
##&CDP-8D5C;
##乑
##𢇂
##&CDP-8CE2;
##&CDP-8BD8;
##聑
##&CDP-8BD1;
##&CDP-8A73;
##&CDP-88D2;
##刕
##𠯳
##畁
##&CDP-8CBC;
##&CDP-8AF2;
##&CDP-8CFD;
##&GT-03877;
##&CDP-8C40;
##&CDP-8BA8;
##&CDP-8BC2;
##雈
##&CDP-88B6;
##&CDP-8DEC;
##𠘧
##&GT-11725;
##筄
##&CDP-8D65;
##𢎨
##⻀
##汒
##&CDP-89E7;
##茾
##巟
##芘
##狃
##犾
##芚
##泙
##芠
##秇
##&GT-22147;
##胙
##枲
##胊
##皅
##㓩
##挐
##祘
##涖
##竘
##萠
##夎
##&GT-11737;
##敇
##洴
##&CDP-8AD3;
##焄
##𡨥
##𨸋
##宼
##湡
##&CDP-85A1;
##稊
##甤
##缊
##飧
##滈
##媷
##&CDP-8ADE;
##𣹰
##飱
##𩐁
##隡
##𤋱
##貍
##漅
##歊
##搴
##稨
##䅥
##遬
##蓺
##瘣
##⺯
##閵
##橤
##縕
##⻗
##頴
##諼
##穐
##黈
##𤾡
##黊
##櫐
##&CDP-8DEB;
##瀸
##嚻
##鷊
##&CDP-8DC1;
##&CDP-8D6B;
##&CDP-8D73;
##𧇃
##𡭴
##儵
##&CDP-8976;
##&CDP-8C4A;
##&CDP-8BB9;
##㡿
##&C3-2D33;
##㬰
##庳
##莾
##𢧵
##𢇍
##皕
##亍
##𩠐
##&C4-3043;
##&CDP-89EF;
##&GT-26647;
##尓
##𥄳
##⻃
##奭
##&CDP-8DD0;
##㶣
##&CDP-8A57;
##&CDP-8C68;
##夐
##嶲
##㠩
##&CDP-8CC3;
##㿽
##&CDP-8AE1;
##丮
##&CDP-8D51;
##盇
##&CDP-8DA3;
##毌
##&CDP-8C48;
##&CDP-8D74;
##庒
##&CDP-8DE9;
##&CDP-8D68;
##&CDP-88D9;
##猋
##兟
##鴈
##虤
##龰
##&CDP-8961;
##⻊
##耴
##䓣
##&J83-3453;
##&J83-3152;
##䘙
##闒
##藺
##㕍
##畚
##&CDP-8C6E;
##辡
##𡰣
##卣
##&CDP-8C55;
##𡱝
##𦍒
##眔
##𠳋
##莝
##㖾
##&CDP-89FA;
##蕇
##&CDP-865E;
##𥁓
##縻
##&CDP-8DE3;
##&CDP-8DB3;
##㔻
##&CDP-8AB9;
##𧴲
##&GT-25686;
##𧯥
##&CDP-8C56;
##鍂
##&CDP-8DD4;
##&J83-3C59;
##&GT-35270;
##&GT-17256;
##𥄎
##㚒
##𡉼
##&GT-K03318;
##侌
##㑒
##迶
##𢀡
##遀
##𠇍
##倠
##&CDP-8DDF;
##&CDP-8DB5;
##&C5-4A7B;
##&CDP-8D4F;
##雥
##𢏝
##暘
##寳
##䳡
##鵭
##㦰
##恖
##&CDP-8C59;
##𤎭
##䬕
##飠
##⻞
##殄
##饣
##&GT-36650;
##𩡐
##𠤏
##槖
##&GT-08935;
##髟
##斲
##鬯
##⻤
##&GT-K03457;
##&GT-11685;
##&CDP-8977;
##㷉
##&CDP-8DCD;
##𠌵
##宂
##&AJ1-03409;
##勅
##&GT-08917;
##&GT-36864;
##&CDP-8CF8;
##&GT-11011;
##&GT-11552;
##&GT-K00207;
##&CDP-88D4;
##黹
